0010
fffa
fff3
0006
fff3
001b
fffe
0007
ffe7
0004
0014
fff0
000b
ffdf
ffe2
0000
000d
fffc
ffe1
fff4
0011
0001
0014
ffff
0000
000c
0011
0008
fffb
ffeb
0016
000f
0005
ffec
fff6
0000
0018
fff0
fff6
ffef
000e
0017
fff6
0001
0006
0009
000f
0014
000b
fff7
002e
002f
0026
0015
fff6
0017
001f
001f
0000
ffe7
0024
fff6
fff8
fff2
ffe5
0003
0000
ffff
0001
ffe5
0006
0004
fff5
ffe3
ffff
000a
0019
ffeb
fffb
0009
0017
000b
fff2
0003
fffc
000c
0010
ffef
0003
0003
0019
0011
000e
001c
fffe
001e
0002
0016
fffc
0003
fff6
ffe0
ffee
0000
fff4
0000
ffe5
fff8
fff7
fffb
0001
ffff
ffdf
fff6
ffe9
001a
000e
fff4
ffda
fff7
fffb
fffd
000a
0014
001a
0016
000a
fffe
ffe2
fff8
0004
fff5
000c
ffdd
fff9
0009
fff9
fffc
ffff
ffff
0010
fffd
0007
fff8
fff6
0014
0009
000d
ffff
fffa
0001
000c
ffe9
fff0
0028
fff4
fff8
ffe2
001c
0028
ffe1
ffcf
fff5
0001
001b
0000
fffc
fff4
fff8
0008
0010
0012
0004
ffff
ffea
fff6
fffb
000c
fff6
0010
ffef
ffdd
ffea
ffde
fffc
0000
ffe1
fffc
ffe4
000a
000c
0000
0003
001d
000d
0027
000d
001f
0010
0003
0003
0012
0015
000b
0018
fff6
ffe4
ffea
fff6
001e
fff5
ffe5
fff7
fff7
001e
fff1
ffe9
000f
fff4
fff5
fff9
0007
ffee
fff5
ffdf
000e
fffd
fff9
ffe0
000d
ffe4
ffdf
ffdb
ffeb
0010
0008
0014
0010
0021
0025
002b
0030
0024
0014
0009
0010
fffb
ffe1
ffe1
fff2
0012
0016
001b
002c
000c
0004
002f
001d
0004
fff0
fffb
000f
ffdd
fff8
fffa
ffed
ffff
0001
fff4
0008
001e
001e
002b
0039
0031
fff4
fff8
ffe7
0000
0015
ffe6
0004
fff0
fff3
0010
0001
0005
0006
000f
000a
0014
0025
0004
fff9
0019
0016
0006
001e
000c
000f
0000
ffd1
000a
0023
0026
fff6
000b
0027
000b
0016
0006
000d
002f
0009
ffd5
000d
0004
001b
ffdc
ffcc
0015
0023
ffe2
ffd9
0002
0006
0013
fff8
ffe0
ffef
ffec
000c
0002
fff1
0020
ffe9
0016
fff9
000a
fff6
fff3
0004
0016
0017
0010
0007
0005
000b
0009
fff0
002d
0019
0008
0006
0017
0029
000e
ffff
0014
0008
0018
001a
0020
fffa
fffc
0012
000d
ffff
fff7
fff0
0000
000e
ffea
ffdd
ffd9
ffff
fffe
0008
fff5
001c
0006
0000
fff7
0018
001b
fffb
ffff
001b
000b
fffc
0017
0002
0004
0013
fff9
0002
0011
0001
ffdc
ffdb
fff9
fff6
ffd7
ffd0
ffcf
0000
fff8
ffca
ffc3
0002
0006
ffd0
ffba
fff9
0024
ffd3
ffd7
fff5
fffb
001a
ffe5
fff3
001f
000b
fff7
001b
ffff
ffe1
000e
ffef
fffb
000b
0000
fff9
fff6
0015
000e
fff8
ffec
0000
0002
000b
ffea
ffec
ffed
fffb
0013
ffff
000c
fffe
001a
0007
fffa
fffe
0009
0019
002c
0005
ffe3
000f
000c
0013
0000
0000
fff0
0010
0008
fff7
000f
0013
fff0
ffff
0012
fff6
001c
0006
0015
0012
ffe0
ffe9
fff0
fffc
0008
ffed
ffe5
ffe8
001c
001b
fff5
fff9
0010
0001
000f
fff0
0000
fffc
0003
0014
000a
0011
0026
0031
0037
002d
ffff
0024
0016
001b
0025
000c
0014
0005
000c
000a
0001
000c
0005
000c
0008
0012
ffef
ffed
fff7
fffb
fff2
000f
001c
ffff
ffe8
ffe5
0007
0021
0010
fff1
ffe7
fff2
0012
0013
fffd
000f
0011
0000
fffb
0014
0004
fffe
0008
0006
fffe
000a
0014
ffd5
ffe2
ffe7
ffd8
0007
ffe4
ffd8
ffd6
fff0
ffdf
0001
ffe1
ffd3
ffe0
ffe8
fff7
fff2
ffed
0000
fff5
ffef
0006
0010
fff4
001e
000f
fff7
ffe9
ffe1
0015
0015
001d
ffe7
ffe5
0008
0003
000d
ffe1
ffe8
ffef
fffb
fffc
0008
0015
ffef
0006
0001
fffe
0001
0020
0025
0006
0013
002b
fffb
fffc
ffeb
fff7
001c
0002
ffdf
ffe6
0008
0015
fff3
0002
fffa
0000
0029
0005
fff9
fffe
000b
0011
001e
0021
0023
0028
001d
ffee
fff5
ffff
ffe4
0007
0006
ffed
ffd5
ffd1
fff3
001f
0000
fff0
fff9
ffeb
0015
0009
fffd
0014
fffd
ffde
ffeb
fff4
fffb
fff0
0006
fff0
fff6
ffd1
fff0
000d
001c
000e
fff4
0004
001a
002e
0025
0015
fffb
001d
0013
001f
0011
fff8
ffd7
ffec
fff1
ffdc
0002
fff5
ffdc
ffda
ffcf
ffe0
0019
0004
ffde
fff8
fff9
0018
fff8
000b
000e
001a
0018
001b
0006
0015
001a
000f
0033
000f
0031
0030
0001
0003
0011
001a
0019
ffec
ffd7
ffdb
ffde
ffcd
0004
fffb
ffe9
ffe2
ffff
0002
0007
fff9
ffde
ffeb
0004
0001
001e
0012
001d
fff5
fff0
ffec
fff1
0007
0000
ffe7
ffee
ffda
0006
001c
ffea
ffe9
fff2
ffef
0000
000a
fff4
fffb
000b
ffe3
ffef
0015
ffd9
ffea
fff9
001b
0018
ffd7
ffd9
0009
fffb
0013
fff5
ffd3
ffef
fff6
0018
000e
fff0
ffd5
0000
0018
0010
000c
ffe8
0003
fff2
0002
0000
001c
0017
000e
fff8
fff3
ffff
0012
0015
0013
fff0
ffe8
0000
0014
0004
0020
fff4
ffef
fff5
fff8
000a
ffec
0016
000a
0017
fff8
ffe6
000e
0016
002e
0013
ffe8
0003
0001
0023
002b
ffdd
ffee
ffd2
fff5
0020
0000
fff3
ffd0
ffdd
001c
000a
0013
000c
fffb
ffe6
000f
0003
000d
fffe
ffe1
ffe8
0005
0017
001f
000b
ffe1
ffe5
0000
001c
0006
ffe0
ffd5
ffd8
0004
fff8
0000
fff7
ffd8
fffc
0016
0011
0007
ffe9
fffa
fffd
0025
000e
0021
0002
ffd3
0000
000e
0013
002f
fff2
ffdc
0004
0006
0027
000f
fff0
fffa
000e
ffea
fff5
000f
0000
0022
fff9
fffe
fffb
0010
002d
001f
0002
ffef
ffed
0006
0026
0017
ffee
ffda
ffeb
0026
0016
ffda
ffec
fff5
000a
ffe7
000f
ffe7
fff0
ffe6
0000
0008
0010
0014
0002
fff2
0007
0010
0001
fff5
0016
ffda
ffe3
ffea
ffee
fff1
fff9
ffdd
ffdf
fffb
fffd
fffb
0013
fffc
0009
fff4
0018
001a
000d
001b
0027
ffff
001a
0016
000e
0018
ffd9
ffff
ffde
ffe7
0000
0008
fff0
ffe9
ffcb
ffdc
ffed
ffe2
fff2
ffd8
0001
ffe8
fffb
ffd8
fffc
fff8
ffcc
ffc6
ffde
fffa
0000
ffe8
ffe1
ffc6
ffea
0000
0007
0017
fff9
0016
ffff
002b
0007
0005
000e
0021
000b
0017
0004
0004
0002
ffeb
ffdf
fff2
ffdf
ffec
ffee
ffe0
fffb
fff1
0006
000a
fffe
000f
ffe6
ffe3
ffe8
ffee
ffd1
ffe6
fff5
000c
0008
002e
001a
002c
0020
0026
0025
002e
0018
fffe
0019
001f
0020
0010
fffe
0012
fffc
fff8
fffe
0027
ffff
ffff
0000
0002
0022
001e
001f
0014
000c
0008
0003
001f
002d
0019
ffeb
fff8
0000
001b
fff5
ffff
0015
0004
ffee
ffda
001a
001b
0006
001a
fffc
0012
0006
000c
0003
0001
ffef
ffef
ffea
fff1
0012
fff7
ffd6
ffe4
ffff
fff0
000d
0009
0003
fff3
fff9
fff8
0004
0023
0026
0026
fff5
0014
0026
0027
0023
ffe7
ffe9
fff9
000d
ffee
fff3
fffd
ffe3
ffe9
ffeb
000f
001b
0007
fff6
0000
0009
fffa
ffda
ffdd
0004
fff2
ffe6
ffe5
ffdc
fff8
ffe3
ffea
ffc7
ffe8
fff6
0003
ffef
ffdd
ffeb
fff7
000a
000b
0011
0011
0024
001c
0000
0029
0013
0005
ffe4
ffe7
fffb
fffe
ffe3
ffd4
ffdd
ffd6
ffe5
fff4
fff6
ffea
fff7
ffee
000b
0006
0014
ffda
ffdb
ffe2
fffc
0012
0001
0010
ffff
0021
001e
002d
001c
0029
001c
0019
001f
0021
0029
ffef
ffe7
ffdc
ffd1
ffca
0016
0016
0010
0008
001e
0007
001f
ffff
fffd
0000
0005
0012
001f
001f
0010
fffd
ffe5
fff7
fffe
001b
fff5
ffe2
fff4
ffee
fff6
fffd
ffea
ffeb
fffc
fff1
000a
0016
000d
fff4
0018
ffe9
0021
002a
fffd
0007
0000
0026
000f
ffee
ffeb
0006
0026
0029
fffb
ffe7
000c
0000
fff4
ffe1
ffe7
0003
fffc
ffed
0011
ffeb
fff9
001e
0000
0000
0016
0008
0009
fffa
0001
0013
fffe
fff9
fff9
0003
0006
0026
0027
0027
0008
0017
001e
0011
0024
fffe
001e
ffe0
ffff
003e
0013
0006
ffea
0014
002a
0003
fffe
fff1
0014
0009
0001
fff9
0010
0008
0006
ffef
ffe9
fff9
000a
000f
000e
fffa
ffe2
0010
0014
ffff
0004
ffd3
0000
0023
001c
000e
ffe6
fff0
0019
001d
0000
0006
ffde
ffd9
ffd5
ffe5
fff9
0000
ffda
ffe2
ffe3
000b
0011
ffda
ffdf
ffed
000c
fff2
ffcb
ffd7
ffea
0000
ffea
ffe1
ffeb
0001
001e
0007
0002
0005
0001
0004
fff8
fffa
ffe8
fff2
000e
000c
0024
fff3
fff0
ffef
000e
0026
fff9
fff3
0000
0008
000a
0000
0006
ffdc
ffd5
fff4
0023
0008
ffeb
0003
0026
000c
fffd
ffe3
0029
0030
ffeb
ffee
000e
002d
0029
ffdf
ffe6
fffd
001f
fff6
ffe6
fff8
ffea
ffff
0000
ffe9
ffe7
001a
fffd
0001
0005
0002
ffff
0013
0014
0009
0013
0000
0009
001d
0007
fffa
fff0
0000
001f
001d
ffef
0011
0024
0012
0019
0013
0007
001f
003a
002f
0008
0002
001f
002b
001f
ffe6
000a
0021
001e
0008
0002
0001
002e
0022
000a
fff4
0008
0000
0001
fffc
fffb
ffe5
0000
0014
0012
000d
fffc
0002
0002
001a
0018
fff8
0015
0023
0019
0008
000b
0004
0021
ffec
fffc
ffdb
fff7
fffa
ffc1
ffd2
0028
000a
ffd7
ffdc
0007
0016
fffd
ffe7
fff7
ffe9
fff4
ffec
ffc6
fff0
0010
ffe1
ffd3
ffea
000f
000b
fff9
ffe9
ffdb
ffef
fff9
ffed
fffd
000a
0015
ffdf
fffc
0024
0002
0013
0004
fff9
001c
000b
fffb
fff3
ffe8
0001
0001
000d
ffe5
ffe2
ffea
fff6
002e
0014
fff1
ffd3
ffe9
fff4
ffe7
fff8
ffe4
ffdd
ffed
ffe9
fffa
fffc
000b
fff9
000c
0003
0020
000d
0022
0009
0011
fff8
ffef
fffa
001a
0004
ffe4
ffd8
ffea
ffe6
000c
ffdd
ffdf
ffd6
ffe3
000f
fffe
0000
000b
0007
0026
002a
001a
0026
000b
0008
0006
ffc2
ffcd
ffee
0004
0000
ffc7
ffbf
ffd0
fffe
0010
000e
ffea
ffe0
fffa
001a
002f
0007
0019
fffb
fffc
001b
0015
0013
000b
ffdc
ffcd
ffe4
fff6
fffe
ffdc
ffcd
ffda
ffef
001b
fffc
001f
0023
0007
000d
0024
0023
0020
0013
0000
0016
001f
0008
000e
0000
0002
0005
0019
002a
fffd
fff1
ffe7
0021
001a
0012
ffea
ffee
ffcf
ffe6
0015
fff9
ffeb
ffff
ffff
000d
0015
001b
0018
0028
0002
fff7
ffe5
ffff
000f
fffd
fff4
ffce
ffd5
0010
000d
fff7
ffdd
0000
0008
0014
0011
001a
0004
ffed
000c
0009
0015
0012
0008
0011
0006
ffef
ffe7
ffef
ffed
fff8
ffff
0013
fff5
fff7
ffee
0003
fff8
0004
000a
0000
0002
fff1
ffe7
0016
fff3
ffe8
ffe8
fffd
0018
000f
000f
ffff
000b
000a
0018
0011
000d
0014
ffee
ffed
ffff
001a
0004
0014
0016
fffb
fffa
0000
0019
0007
fff1
0003
0002
000f
fffd
fff9
0018
fffb
fff4
fff7
ffe1
ffed
fff2
ffd6
ffea
fff7
fffd
ffe2
fff1
fff8
fffe
ffe9
fff7
ffdf
ffe4
ffd9
ffe4
ffe6
fff4
0017
fff3
0000
000a
fffb
fff1
fff5
0016
0028
0000
000f
0017
0000
0024
0013
001d
000e
ffea
ffdf
0007
fff2
fff2
fff5
0004
0002
ffff
001a
000f
fff3
002a
0036
002c
0002
ffdd
0002
fff9
ffed
fff2
0028
ffdf
fff7
0013
0033
0022
000a
0024
002e
0028
0006
0017
fff8
fff8
fffe
fff5
fffd
0009
0021
0022
0000
0014
0003
0009
000d
0007
001b
0000
0006
ffec
0008
000b
0006
fff9
0016
fffa
ffde
fffb
001f
fffd
ffdd
0016
001c
000d
ffdc
ffe5
001a
000d
0015
ffe4
ffd7
001a
0003
fff3
fff9
ffe8
0004
0015
ffed
0005
0002
ffeb
0014
000f
fffb
0006
fff0
000c
001b
fffb
0017
0013
fff9
000f
0004
0014
0013
000c
0005
0001
fff0
ffe8
0000
0017
0003
ffe7
fff6
0012
0004
002c
fffb
fff2
0000
0000
fff9
ffe1
ffef
0002
0000
ffd4
fff9
fff2
0009
fff2
fffd
fff9
ffee
ffee
0002
0018
000f
fff0
001b
fff7
001c
001b
0012
000d
000c
0019
fff1
0005
0000
0017
0016
ffdd
0000
0019
000f
fff4
0003
fff4
fff6
0000
ffe7
0009
001b
000d
fff7
ffc8
0011
001d
ffe2
ffc7
0000
fffd
0005
ffd5
0000
0004
0022
ffea
000a
ffed
fffe
ffee
0018
fffc
0007
fffc
0005
0003
0013
0000
fff3
0001
0005
000f
000f
000e
0009
0005
fffc
fff6
0009
0011
0001
0001
0009
fffc
fff2
fff9
000e
0021
0003
fff5
fffd
fffd
0015
fff3
ffe0
fff6
001e
0014
fff6
ffe7
fff4
0000
0016
ffd8
ffdb
fffd
0004
0000
0004
ffd8
ffdf
0008
001c
001e
fffd
ffe7
0002
0013
fff4
0010
ffed
0005
0000
0001
ffef
0013
001d
0011
0006
ffe3
0007
fffe
0019
000e
ffff
fff5
000f
fffd
0016
fffb
0016
0013
0021
001b
ffe7
fff7
0000
0006
0006
fffe
ffe1
fffa
ffff
001f
0005
ffef
fff5
0009
0026
0031
ffc8
ffe4
fff3
0017
002a
fffc
0008
fff5
0016
fffa
0015
0006
0007
000b
ffea
0013
0019
0016
0015
ffe0
ffea
fff5
0007
0018
0000
ffd5
fff3
000a
001b
000c
fffb
fff0
fff4
fff1
0014
fffc
000a
fff5
fff5
fff9
0016
001c
ffe1
fff7
ffe8
0012
001c
0000
0009
ffda
0024
0021
fff2
000c
fffa
fff0
fffd
fffe
ffef
0000
0008
0003
0012
fff4
ffde
fffb
0000
0019
fff9
fff2
fffc
0008
0009
0000
ffe8
ffdf
fff5
001c
0015
0015
000b
001d
0014
0004
fff3
000f
0009
0007
000a
0009
000e
fff5
ffdf
ffe3
fff9
0018
ffd7
ffcd
ffea
ffe8
0023
fff4
fff1
0012
000d
ffe2
0006
0005
0018
0001
fff4
0008
0007
0022
0014
ffef
001c
0015
ffec
fff0
fffa
000a
0005
ffcb
ffd7
000f
001b
fff2
0001
0012
0000
0004
fffd
ffef
0009
0028
0014
0002
ffd2
fff3
0039
000b
ffdb
ffcf
fff3
0037
0020
ffd6
ffee
ffe9
0016
0001
ffec
000a
fff7
fffd
000f
001e
002a
0027
000b
0004
fff3
ffe0
fff6
ffef
ffff
ffdf
fff3
ffde
000d
001a
fff5
fff8
0010
001f
0025
001b
002f
001b
fffa
ffb7
ffe1
0015
fffc
ffe3
ffdf
002a
0033
0034
ffcf
ffe9
0031
0017
0030
ffdf
fff9
fff0
fff7
ffe9
ffe6
0003
ffe7
fff1
0008
0004
ffff
0009
fffb
0007
0013
fffd
ffeb
0017
000a
fff4
0005
ffe9
0005
0004
fffb
0008
ffee
fff2
fff8
0012
0018
fff7
fffc
0012
0025
001b
fff5
fff6
fff0
001d
fff4
ffd6
ffec
ffee
0017
ffed
ffe7
ffef
fffe
0001
000d
0004
0013
0004
fff6
ffdd
fffb
ffe5
ffea
0003
fff4
fffd
fff3
0002
ffe7
0018
0005
fff1
ffe6
000f
001f
000f
0012
0000
000a
0017
001b
001f
0020
0014
fff6
ffee
fffe
fff7
0023
001b
0001
ffef
fff9
0016
0016
ffe7
0009
ffeb
fff4
fff0
ffed
fff5
0000
ffde
ffe9
fff8
0005
000d
fff1
ffd4
ffd0
ffdb
fff1
ffed
000f
fffb
ffce
ffdb
fffb
0021
000c
fffb
000f
0003
0019
0018
0023
0013
0009
000c
ffef
fff7
0000
fffe
ffec
ffdf
ffea
fff9
ffda
ffdf
fff7
0019
0007
ffde
ffdd
fff5
fff8
ffec
ffe7
ffe7
0002
ffdd
ffe2
fff5
0023
001a
004b
0044
0019
001f
003a
001d
002c
000c
0012
fffb
fffb
fff8
fff3
0017
fffa
0011
fff1
0019
0009
0017
ffed
ffed
0013
fff9
0006
001c
001a
000f
0013
fff5
000e
0000
