0003
0000
ffe2
0046
000e
ffdb
0003
0030
0044
0035
ffe5
ffcc
002c
0015
004f
ffb3
0008
ffe6
003d
0026
ffdd
ffe7
0033
0034
ffea
0044
001b
0029
fff6
ffee
0030
004a
0015
0027
0032
0002
ffe2
004a
000a
003e
002f
001e
fffc
fff1
0044
0005
000a
ffe1
fff6
fff7
0006
ffee
0001
000c
fff9
003f
0002
0021
ffd8
0003
0003
fff9
0023
0018
ffbc
ffe9
0037
004d
ffe0
ffbc
0024
fff6
0040
ffe2
ffd7
ffd0
0037
0012
fff2
ffd3
ffec
002c
000c
fff6
ffce
ffdb
0038
002d
0024
ffdf
fff4
003a
ffec
0008
004d
0042
001a
002f
003c
0045
0040
0054
000a
0047
0038
0014
0026
0042
005c
0003
0038
0011
fffa
ffe8
003a
ffc2
ffac
ffc3
ffdb
ffc3
ffb9
fff0
ffac
0003
000a
0051
0031
0035
0016
fff4
ffed
0040
ffff
fff2
0013
ffd0
0033
fffa
0008
ffe4
ffe1
fff1
0000
0013
004c
ffcc
0035
0024
0031
fff4
