0001
0000
fff7
fff9
fffe
0002
000e
0003
0002
0009
000d
0012
000c
fff3
0000
0008
0009
000b
fffe
0001
ffff
0009
0002
fff1
0006
0004
000b
000e
fff8
fff5
000d
0007
fff1
fff7
0000
000d
ffef
000c
0008
0008
000f
0000
0001
0008
0000
0006
fff4
fff8
0001
001d
fff1
fffa
0006
fffe
fff9
ffef
000d
0004
fff2
0005
000e
0006
fffb
0008
0009
fff7
0001
0016
000f
0002
0000
0012
0000
fff3
ffed
000b
0000
0004
0011
fff9
0007
fffc
0003
0009
000c
fffc
0010
0007
0001
000a
0000
0012
000e
fff6
000f
ffff
0005
0008
ffec
ffe9
0018
000b
000c
0012
000b
0010
000a
fffc
0010
000f
fffa
0008
0011
0012
fff0
fffc
fff2
0003
fff1
fff1
000f
fff3
fffb
0000
0014
fff7
fffc
0001
0012
fff9
fffb
fff8
fff5
0006
0016
0000
000b
fff9
fff8
0001
0007
000f
fffe
fff2
000b
fff3
0008
0006
0008
fff9
fffa
fff2
0000
0004
fffe
0000
0004
fffc
000a
000e
fff8
0002
ffe9
fff0
0008
fffb
fff5
0006
0000
0002
0003
0008
0011
0000
0003
fff7
ffed
0001
ffff
0000
ffec
0004
000f
0008
fff9
ffff
fff6
ffed
0003
0005
fffe
fff7
0001
000d
000e
0000
0012
000d
000d
0005
fffa
fffd
0001
0010
0001
fffe
0006
fff0
0014
000c
0011
0008
fff8
fff7
000b
000a
001b
000e
fffa
fff3
fff5
0000
000e
ffeb
ffef
ffee
000e
0009
000d
0000
0011
0013
000a
fff5
0014
000e
000f
fffc
000a
0010
000c
0004
000a
fff7
0001
fff4
0000
fffa
fffc
ffec
0000
0003
0014
ffff
0005
000b
000d
fff9
0000
000e
fff1
fffc
0000
0006
fff8
ffdc
fff0
0008
fff7
ffed
0008
fffd
0009
fff7
fffc
fff7
fffd
000a
0003
fff3
fffa
0002
fffa
fffa
fff9
000e
ffff
0004
0001
0012
0002
fffe
fffd
000a
0005
000e
0009
fff7
fff2
0000
ffec
fff4
0006
000b
000c
fff5
fffd
fffd
0002
0006
0012
0012
fff2
fff8
0006
000f
fffc
fff6
0009
0009
000e
0005
fffe
000a
0003
0000
0003
0000
0002
0010
0006
0000
fffa
fffd
0005
ffff
0000
ffee
fff0
0004
000f
0000
0000
0006
0000
0006
0002
0008
fff3
fff8
0009
fffd
0004
0005
ffff
fff5
fffc
0005
0005
0009
ffe9
fffc
000d
0003
0003
0000
0002
fffc
000b
000e
fff9
fffb
fffb
0000
0011
fff6
fffe
fff5
0002
fffb
ffee
0000
000a
0004
fffc
0003
fffd
000b
ffed
0016
fffa
000e
000d
fffd
0013
ffeb
0000
fffb
000b
fffe
0014
ffff
000b
0004
000d
fff8
fff0
0007
0000
000b
fff6
ffec
0002
000e
0007
0002
fff8
fff7
0002
0002
0003
0007
fff8
000a
0000
0004
000e
0009
fffe
fff5
fff2
0006
000f
fff9
ffef
fff4
0014
fffb
fffa
fff0
0000
0013
0002
fff4
0000
0000
000f
0006
fff5
ffe8
0001
ffed
0000
0008
fff9
fffd
fff6
0001
001e
0004
ffe9
0006
fffb
fff6
fff8
0001
0001
0005
0000
fff7
000b
000b
ffef
000a
fff2
0003
0007
fffe
fffd
000a
0008
fff2
0000
0003
0005
fffb
fff8
fff8
fffd
fffa
0010
fffd
fff5
000f
0000
0017
ffff
fffd
0003
000a
ffea
000e
0015
fffa
0013
fff5
0011
fff5
ffff
0000
fff1
fffd
ffee
0000
fff0
0009
0007
0005
0009
fffc
0005
0012
000e
0000
ffee
0005
000c
0013
0004
fffa
fff2
ffec
fffa
0000
fff7
fffe
ffe8
0009
0000
fff8
0007
fff9
0005
fff8
000d
000a
fff2
000f
fff9
0004
0012
0015
fffb
fffd
0006
0013
fff1
0015
fffd
fffa
fffa
0004
001a
fffe
fff3
0002
fffd
0009
fff4
0007
0004
0001
fff5
0007
fff8
000d
000e
fffd
fff2
fff6
001b
0007
fffb
fffd
fffe
fff8
fffa
0016
0019
fffd
fff2
0006
0000
fff3
fffb
fff2
0000
0006
0007
fff7
0005
ffe5
0013
0002
000a
fff3
ffe7
0000
0000
0009
fff7
ffeb
fffb
0000
000a
0000
fffd
000e
fff5
fffe
0000
fffa
0003
0007
fffe
fffc
fff5
fffa
000b
000a
ffe8
fff8
0004
0009
fff2
ffef
ffe8
0001
fffc
0001
0001
fff8
0002
0000
0001
0005
000f
0010
0000
ffeb
0005
fff6
0000
fffa
0001
001f
000b
0005
fff8
0000
0012
fffa
ffe2
fff1
0000
0012
000b
fff6
fffe
0003
0010
000a
fff7
fffc
fffc
000a
0001
fffe
000b
0007
000a
fffd
0003
000c
ffff
0002
0009
fffe
0003
0002
0000
fff4
fffa
0001
0007
0003
fff9
0007
000b
fff5
0002
fff7
fff5
0003
0013
0000
ffed
fffb
0008
0000
ffef
ffe9
0013
0015
fffc
fff5
fff3
0000
0008
0002
0004
fff8
fffd
000e
fff3
0008
ffef
0010
0005
fff5
fff1
fff2
0000
000f
fffa
fff4
fffc
0008
000d
0006
fff3
0000
0000
0000
fffb
fffb
fffb
fffb
000f
0002
0026
fff5
ffe7
0002
fffb
001b
fff7
ffe5
000b
0001
000c
fffb
0004
000c
fff2
0006
fffb
0006
0002
fff3
0009
000b
0014
0002
fff7
0020
0013
fffd
0002
0000
001a
0003
0000
0013
000a
0009
ffe5
ffeb
0011
fff3
0005
0006
fff0
000e
fff2
0010
fffa
000b
0003
ffff
fff5
0002
0000
fffe
0000
fff5
0003
0003
fffe
0004
000b
ffff
0009
fff9
0004
000a
000c
0007
0004
fffc
fffd
000b
fffa
0005
ffff
0010
0006
fff8
fff1
fff4
ffff
fff9
fffd
0016
0001
0013
0002
fffb
000c
0005
0014
fffd
fff2
ffff
0023
000d
ffeb
fff2
0003
0016
0000
000f
0010
ffeb
0000
0007
fff1
fff9
fff9
ffff
fff9
0000
0019
0003
fffb
000f
0000
000e
0003
0003
0010
fffd
fffc
fff8
fffc
0007
0007
000a
0004
fffd
fffa
0002
fff6
fff8
000d
fffd
fffd
0002
0006
0009
fff5
fffd
0011
0007
fff9
ffe9
fffb
0008
fffd
000b
0004
ffea
ffee
ffeb
0008
0009
0001
0016
000d
fffe
0000
0002
0002
000a
fffb
fffa
ffeb
fff6
000b
0018
000d
fffb
fff6
ffff
0009
0002
fff3
fff4
0010
0008
0003
fffb
0004
0008
0003
000e
fff9
0001
fff5
fffa
0004
0009
000b
0003
0006
000d
0006
0000
fff7
0007
0012
000a
0010
0001
fffc
0009
fffe
fff8
fff3
0006
fff7
0009
fffe
0009
fffd
0003
0011
0000
0003
0014
fffb
0012
0010
0013
0006
0008
0016
000a
000a
fff9
0004
0003
fff2
ffff
fffc
ffff
fff7
fff9
fffb
0010
ffff
fffd
0009
0004
0007
000a
0008
0001
0007
000a
0003
fffa
fff7
000a
0006
0001
fff2
fffc
fff3
fffc
0001
000e
000d
fff7
fffc
000d
000c
fff8
fffe
fff6
ffef
ffef
fffe
0008
fff9
fff5
0003
0002
ffed
0005
fff0
fff3
0001
fffb
000a
000c
0016
000d
fff9
0008
fffe
000b
fffc
0003
000a
0009
fff8
ffe5
0006
0006
0004
fff1
fff8
0000
fffa
0017
0002
0016
0000
0009
0010
000d
0005
0005
ffff
ffe8
ffea
fff5
fffe
000b
ffe6
ffea
fffe
0000
fff9
000b
0007
0007
0007
fff5
000c
0009
0008
000c
fffe
fffa
0016
0004
ffff
fff8
0007
0004
fffe
fffe
ffff
0000
0011
0010
000a
0002
0006
0013
0016
000a
ffff
fff8
0000
0002
fff7
0008
fff8
fffd
0001
fff5
fffb
0009
001a
0014
0003
0014
fffd
fffe
000b
0002
000c
0000
0003
000b
fffd
0008
ffff
0004
fff9
fff1
0003
0002
0013
000b
fff4
000f
fff7
0009
000c
0001
0000
0011
0008
fff0
0007
0005
000f
000c
0008
000b
0006
000c
0013
0019
0002
ffea
fff8
fff3
fff2
0004
0004
ffe9
000e
fffe
fffd
000a
fff9
000f
fffb
0002
0013
fff6
000c
fffe
fffd
0004
0008
0004
0005
0006
0000
0010
0001
0008
000d
000c
fffa
000f
0006
0007
0009
0007
0014
0003
0000
000a
0010
fffe
fff5
fffd
0002
0004
0015
0000
fff6
fff8
0009
0013
fffe
0000
0006
ffec
0005
000c
000d
fffd
ffee
fff9
0009
0000
ffff
0017
ffff
fff4
0006
0008
0001
0003
0004
000e
0014
0009
000b
0013
0000
0000
0000
fffd
fff5
fff4
fff3
000b
0005
0011
0005
fff3
0000
0001
0000
0004
0009
000c
0009
ffec
0000
0000
fffe
000b
0004
0007
000a
0002
fff7
fff6
fffb
000d
0002
0006
fffa
fff8
000b
0014
fffb
fffb
fffc
0010
fffe
001b
000a
0002
0001
0011
0005
0017
0004
ffff
fffc
fff8
fff8
fffe
fff4
fff6
ffea
fff5
0017
0013
000e
0007
0010
0003
ffff
000e
0000
0003
0008
0005
ffff
0007
fff0
fff6
000f
000e
0009
fff7
000a
000e
0009
0010
000f
0008
0012
001c
fffd
fff7
0003
fffb
0010
0021
fff2
fffb
fff5
0003
0012
0012
0005
fff2
fffe
fff2
0002
0015
0005
fff2
000d
0011
0008
0001
ffff
fffd
0000
fff4
ffff
0002
fff9
ffee
fff6
fff3
fffb
fff8
0012
000d
0003
fff8
fff5
0007
0006
fffa
0002
fff3
fff4
fff6
000c
fffe
0000
fff6
ffec
000c
0005
0006
ffed
fff7
0001
0011
0005
000a
0006
0003
0001
000f
0018
0001
0005
fffc
fff6
0003
0000
fffb
0016
0000
ffee
fff4
0004
0005
0002
ffff
0007
fffb
ffff
0003
0019
0004
fff5
fff6
ffff
0007
000d
fffe
fff3
fff3
0002
0009
0011
001d
0005
fff5
0000
0009
001c
0012
fff4
000f
0007
000d
fffb
000f
0002
fff7
fff4
fff3
fff9
fff8
000f
fff6
fff3
fffb
0001
fffe
000e
fffa
fff6
fffa
0000
ffee
ffee
0004
fff6
ffe7
000f
0002
000a
0009
fff5
000d
0001
fff5
fff9
0003
fffc
ffd7
ffeb
000d
0011
ffff
fff8
0007
fff1
0006
0010
0001
fffd
000e
000e
ffff
000d
0000
0004
fff9
fff3
fff9
fff5
0001
0007
fff4
0000
0003
000e
000f
000f
0009
000b
fff8
000b
0006
000b
fffe
fff8
0002
0011
000a
0008
0011
0000
fffd
0003
0009
0011
fffd
0004
fff6
0008
000e
0010
0012
0012
ffea
ffff
000d
0006
000c
0000
0003
0002
fffb
fffe
fffd
000c
fffd
0001
fff3
0009
0002
fff7
ffeb
fff3
000b
0010
fff8
ffe7
0017
0020
0001
000f
fffd
ffff
0009
0009
0005
0005
fffe
fffd
000e
0013
fffc
fffc
0006
0005
fffd
ffee
ffff
fffc
000e
0000
000d
0008
0003
ffee
0001
0006
0019
0006
0006
fffe
0005
0014
0007
0013
0011
ffff
ffee
0000
fff9
000a
fff6
fffe
0003
0005
0005
0000
0004
fffe
fff4
fff7
0007
0005
0008
0008
0006
fffe
0000
000e
fff9
fff8
0007
ffff
fffc
0000
0000
ffff
0011
0007
0005
0008
fff4
0001
ffef
fffa
000e
0005
000f
fffb
0001
0002
0004
fff5
0003
0003
0016
000a
0011
fff7
001c
0019
0004
0001
000c
001b
0001
0006
000e
000c
0000
0000
0000
0000
0006
0000
fff3
0004
fffa
0012
0000
ffed
0009
0004
fff9
fffb
000c
fffa
ffed
fffa
0009
0004
000b
0008
fffd
000a
0004
0002
fffa
fffa
fff3
fffb
0012
fff5
0007
ffff
fff7
0004
fffa
000e
0000
000b
0008
fffe
0015
fff5
000c
fff2
fffb
ffff
0000
ffff
0003
fffc
0000
0008
fffd
0007
fff4
ffee
0015
0013
000e
0000
0000
0018
0005
fffc
fff4
fff4
fff1
0000
fff9
0006
fff5
ffed
0000
0006
0001
fff8
fff6
000a
0006
fff4
0001
fffb
0014
fffc
0000
0010
fffc
0004
000a
0014
fffe
0007
0006
0009
0006
000d
000a
fffe
0002
fff3
fff5
0007
0011
fff7
fff7
fffa
0002
000a
0000
0011
fff1
fff4
0008
0012
0011
000e
0006
0000
0008
0003
0003
0009
001c
fffe
0004
ffff
0008
000d
0009
fff5
0000
fff9
0009
0004
0008
0002
fffb
fffe
0012
0018
000f
0005
0010
fffd
0005
fff7
0000
fff8
fffa
0008
0008
fff1
fff8
fff9
fff8
ffff
0005
0000
0013
000c
000d
000f
0008
0008
0009
0009
ffff
fffe
0008
0009
fffa
fff9
0006
ffff
fff6
0005
fff5
fffe
fff4
fff6
0008
fff4
000f
000f
0012
0009
000c
000e
ffff
0005
fff9
fffa
fff4
fffc
fffc
fffe
fff7
fff4
0000
0000
0019
0004
000c
0024
0006
000c
0001
0004
fff8
0004
fff2
001f
000c
ffd3
fff2
0015
0003
ffff
fffe
000b
fffe
0007
0000
fffd
fff8
0001
fffb
fffe
0006
000b
fffd
0001
fff8
0000
0008
0009
ffff
0009
000a
0000
0011
0005
fffe
0015
fffe
000e
0002
000d
ffff
fff3
fffe
0005
fff4
fff3
0008
000e
0006
0002
0000
000e
0006
fff4
0005
0009
0012
0002
0013
ffff
0004
0011
fffc
fff0
0000
fffd
fffc
0002
0003
0003
fff5
ffff
0004
0006
fffe
0002
0013
fffc
000b
fffd
0002
0003
fffc
0007
fffc
fff4
0012
0012
0003
fffe
fffd
ffef
0009
000d
0000
fffe
ffef
000f
0001
fffe
ffed
0012
ffff
fffb
fff4
0007
0003
fffa
0000
0001
0000
fff3
fff7
0007
0004
0007
000a
0008
fffc
0001
0006
fffb
0003
0004
fff6
fffb
fff3
0009
000e
0004
0002
0007
000a
fffd
000a
fffe
fff8
0001
fffe
0006
0008
0001
0000
0006
ffff
ffff
fff5
0004
fff7
fff9
0005
0000
fff8
0000
fff4
0008
ffff
0009
0004
fffd
fff4
fff8
0000
ffff
0002
0007
fff8
0001
fff9
0007
fff7
0008
fff7
fff6
0002
0005
fff8
0009
fff4
0002
0000
0001
fff7
fffc
fff5
000a
000b
0000
fffd
fff6
fffb
0001
fff7
0002
fff7
fff6
fff7
0006
0001
0006
0000
000b
0002
fff9
0000
ffff
fffe
0004
0008
fffc
0007
0001
0004
0002
000b
000c
fff8
fffe
0000
fffc
fff8
0002
0000
fffd
0009
000a
fff5
0009
fff7
fffc
0000
ffff
0004
0003
0009
0006
fff5
fffb
fffc
ffff
fff9
fff8
fff5
fff9
0009
fffb
fffe
fffa
fffa
fff5
fff9
fffb
fff4
fff9
0000
fffe
fffa
fff9
fff6
0000
fff8
fffc
0001
fffe
fff5
0004
0005
fff9
fffa
000c
0002
0002
fff4
fffc
0008
fff4
0000
fffc
fff5
ffff
0009
fff4
0003
fffa
fff7
0000
fff4
0006
fff7
000c
fff5
0000
0008
0007
0003
000a
0008
fff6
fff7
0000
0001
ffff
fffa
0007
0000
0007
fff7
0004
000a
0003
0001
fff9
fff6
fff7
000a
fff9
fff4
fffc
fff7
0006
fff5
0001
0007
ffff
0008
fff7
0000
000a
fff7
fff7
0000
0003
0000
0007
000a
fff4
ffff
fffa
0004
0006
0008
0008
0007
fff9
0004
fffb
fff7
fffc
fffd
fff6
fffd
000a
0001
fffd
000b
fffd
0009
0002
fff8
0005
000b
0004
fff7
0004
fff4
fff4
0007
fffa
0002
fff4
ffff
0005
fffd
0002
fffa
000b
0001
000c
0007
fffb
0000
000c
000a
0008
0001
0003
000c
0004
0001
fff8
fffa
0002
0009
0004
000b
0000
0000
0008
0004
0005
fffc
fffa
0007
fffd
000c
0000
fffb
0007
0005
0002
0004
fff5
0000
fff6
fff4
fffd
0004
fff8
fffe
fffc
0005
0007
ffff
0002
000b
0004
fff9
fffa
0000
0000
0003
0000
fffd
fff6
0004
fffd
0000
fff8
fff7
0004
0009
fffa
fff6
000c
0000
fffd
0007
0005
0006
fffe
0007
0009
fffa
0001
0004
fffe
0008
fff7
0002
fff5
fff9
000c
0009
fff7
fff8
0001
000a
fffe
0002
0005
fffc
0003
000b
fff9
ffff
0009
fff5
fffd
0008
fffe
fffd
fffb
fffd
ffff
fffc
0008
fffb
0001
fff8
000c
fff7
fff5
0006
0003
fffe
0009
fff7
fff8
fff8
fffe
0000
0004
0004
fff9
0009
fff6
0006
fff4
fff8
fffb
000a
0004
fffe
fff5
fff7
0009
fff5
fffe
fffc
0009
0005
0005
0004
fffb
fff7
fffb
0006
fff9
0004
fff8
0001
fff4
fffd
fff7
0008
0012
0006
0003
000a
0000
fffe
fffe
fff9
0002
0003
fff5
fffc
fff7
fffa
fffa
fff5
fff3
fff4
000d
fffb
fff0
fff6
0008
0013
0006
fffe
0000
fffc
0009
fff4
0000
0001
ffff
fff7
fffc
0008
000a
ffff
ffed
0006
0000
000f
fffe
fff0
fff5
fff5
fffb
0000
fff6
0014
000d
fff5
fffc
000b
ffee
000f
0001
0003
000a
0006
0003
fff8
fff3
000c
000a
000a
fffb
0011
0009
ffee
fffc
fffe
0002
0002
fffc
000d
0015
0009
0000
fff0
fff9
0009
0000
0007
fffa
fff0
fffb
0004
0010
0003
fffe
0002
0006
fff9
0000
fff9
0003
0006
000c
fff6
0005
001c
0017
0018
0011
fff6
000b
0004
ffff
fffd
0003
001a
0013
fff3
0005
ffe9
ffff
0000
0005
fffb
fffd
0013
0016
001b
0023
fffe
000a
0001
fff0
fff5
fff9
fff9
000d
000e
ffef
fffc
ffe8
0007
fffb
0000
ffee
ffeb
fffc
fffb
000f
ffdb
ffe2
0016
000e
0000
ffff
0001
fff5
fff9
ffeb
0016
fffd
0006
0010
fff4
000f
fff2
fffa
0001
0009
0008
fff6
fffb
fffa
0009
ffe4
fffc
fff8
fff6
fff6
0010
0009
0000
fff3
fff5
0000
0012
0019
0003
ffe7
0001
0007
0000
0008
0003
0001
0000
fff5
0000
0001
fff1
0000
fffd
fff2
fff9
0013
fffc
0016
0003
fff2
fffd
fffa
0013
0006
fff5
ffec
ffe7
0006
fffd
fff3
fff8
0000
000c
fff7
0001
fff8
0004
0013
0007
0002
0005
000a
0001
fff8
fffd
0000
0002
fffd
0005
0002
fff2
ffed
0010
0001
0000
ffee
fffa
001a
fffd
ffea
ffeb
fff9
000f
000f
fff3
0006
0010
0015
0004
000b
fffe
fff4
0000
0007
0000
fffa
ffff
fffc
fff7
0019
ffe4
ffe9
000e
0009
0008
fff0
ffd4
fff9
0016
0003
0007
fffe
0001
fff9
0000
0004
0007
fff4
fffb
0007
0004
fffe
0000
0000
0000
fff0
0000
0000
0000
fff8
ffe7
0001
fff3
fff7
0007
ffff
000c
0003
0008
fff7
0005
0007
0008
0001
0000
0000
fff1
0002
0000
fff2
fffc
ffeb
000b
0005
fff8
fff8
fff7
000d
fffc
fff8
0009
fffa
000c
fff8
ffe8
fff6
ffec
0000
0002
fffc
0000
fffc
0006
000b
0001
ffec
fff6
0012
0002
fff5
ffec
fffd
0008
fffa
fffc
0019
0000
0001
0014
fff9
0004
fffc
fffe
0002
fff8
0009
fffb
0003
fffd
fff4
0005
ffed
fff4
0015
000a
fff0
fffc
0010
000f
fff5
0000
fffb
fff7
0007
fff2
0001
000f
fff5
0009
fff6
fff9
ffec
fff5
0001
0008
fffa
fffd
fff4
0016
0001
ffe8
fff0
fffe
000e
ffee
fff1
fff6
0004
0008
fff7
0011
0000
0009
0006
ffed
0009
fff8
0001
000f
fff0
0009
fff5
fffc
ffff
0000
fff2
0005
0004
0003
fffe
0002
fffe
fff5
fffa
ffff
0008
000b
fff5
fff1
0012
fffc
0003
000e
fff8
0013
0007
000d
0004
fff2
0023
0001
fff9
fffc
000b
003c
fff7
0001
0003
fffe
fffc
0000
ffef
fffc
0005
fff4
000d
0002
0017
000b
ffe3
000d
0017
fffe
0008
fff8
0016
000c
ffe1
fffa
fff9
fff2
000f
0007
0006
fff0
000e
0013
0003
fffa
ffeb
0006
fffe
000f
000b
ffef
0000
ffea
0004
0000
fff1
fffa
fff2
ffff
0009
0002
ffef
fffe
fffc
fffb
0000
0007
000f
0011
0011
001a
000f
000d
0003
0015
000e
0004
fff6
ffeb
0018
0015
fffb
001a
000e
0023
0003
0008
000f
000a
0008
000f
0002
000b
0007
ffe8
fffb
fff5
0002
000e
0001
0003
fffc
fffa
0008
000f
0014
fff2
fff7
0000
0002
0019
0001
0002
0006
0002
fffc
000a
fffe
0007
0000
0004
0010
0000
0006
fffc
fff6
0009
000f
0003
000d
000c
0005
0006
fff5
0006
001c
0001
0007
000c
0011
000e
0013
0011
fffb
fffd
000b
ffff
fffa
0005
0004
fffd
fffd
0005
000d
000b
ffff
0005
fffc
0008
0007
0002
fff5
fff3
0006
fff1
0002
0000
0005
0004
fff9
fffa
fffd
fff8
0014
fffa
fff3
fffb
fff3
0005
0000
0011
0002
ffea
000c
fffc
fffc
fff5
fffe
000b
fff6
ffff
fffb
fffc
fff7
ffff
fff8
fffe
fff8
0004
fffe
fff4
fffe
000f
0014
fff0
0001
0004
0006
fff0
000b
0015
fffb
fff8
0007
ffff
ffff
0010
001c
0028
000c
fff9
0019
000a
0015
0015
001a
000a
fff4
0000
0020
0020
ffed
fffe
0008
0035
0006
0003
fffc
0008
000b
fffd
0000
fff7
fff4
fffd
000a
0010
0007
fffa
000c
0000
ffff
0006
0009
fffa
fff7
0000
fff9
fffe
fff8
000e
fff1
0011
fffd
000a
0005
0001
0001
0005
fffb
fff6
0006
fff3
fff9
fffb
ffe9
000b
0007
0002
000e
ffff
fff9
fff9
000b
0000
fffc
fff3
fffd
fff6
fffc
0007
0004
fffa
000b
fff4
fffd
fff7
0007
000e
fffe
0000
ffff
fff3
0005
0009
0001
0005
ffff
fff7
0008
fffb
fff9
fffc
0017
0002
ffef
0008
fffb
0004
0005
000c
0015
fff8
fffd
0013
fff2
0011
fffa
0002
000f
ffff
0002
0009
0013
fff6
fff5
0006
0002
0002
0002
000a
0010
fffe
fffb
0006
0003
0009
0012
fffc
ffff
0006
fffd
0004
000d
0007
fff4
0004
0005
fffa
000d
fff4
ffff
0003
fff3
0001
0000
fffd
000b
0006
0003
0000
0002
0000
0005
0005
0008
fff3
fffd
fff7
0006
0005
0009
fff1
fff1
fffe
0000
0005
0005
fff2
fffb
0009
0007
fffc
0008
000f
0001
fff5
fffd
0005
000c
000b
fffa
ffff
fff6
0001
000a
0001
0006
0005
0000
0003
fff6
fffa
fff6
fffa
fffd
fff2
000a
0002
fff4
fff7
fff7
0006
0005
fff3
0006
fff6
0004
fff3
fff4
0002
fffb
0000
0001
0008
fff8
000a
fff5
0008
fffb
fff2
0006
fff4
fff6
0008
fff2
fff4
fffc
fff4
ffff
fffe
fff6
0006
fffd
000a
fffe
fffe
fff9
0007
0006
fff6
0009
fffa
fffc
0007
0009
fffa
fff6
0009
0001
fff4
0000
fff3
0006
0008
fff3
fff6
fff8
0007
fff8
0004
fffd
fff8
fff9
0000
fffc
0002
fffb
fffe
fffb
0009
fff7
fffd
fff7
fffb
fff6
fffb
0000
0004
000a
ffff
fff2
000a
fff8
fff9
fffe
0000
fffb
0008
fff9
0002
0005
fff8
fff2
000a
fff7
fff9
fff9
fff2
0001
0004
0001
0004
fffb
0006
0009
0009
fffc
fff1
0003
fff8
0000
fffe
0004
0003
0009
fff3
0004
fffa
fffa
0007
fffb
0005
0000
0000
000d
fffb
fff9
0000
0009
000b
fff6
fff3
fffa
ffff
fff5
0009
fff8
0000
0007
0002
fff9
fffa
fffc
fffd
0003
0004
0008
0004
fffd
fff3
fff7
fffe
0003
fff3
fff7
fff6
ffff
fffc
fffd
fff4
fff9
0009
fff9
fff7
fffa
0008
ffff
0002
0000
0004
0007
000b
0001
0007
fff5
fff6
0005
0000
fff6
0003
0003
0004
0008
fff4
fff6
0007
0008
fffe
ffff
0006
fffd
0000
fff6
0000
fffd
fffc
fffa
0009
ffff
fffc
fff6
fff4
ffff
000b
fff3
fffd
fff5
fff7
ffff
0000
ffff
0006
0002
0002
fffe
0009
fffc
fff2
fff7
fffe
fffb
0002
0000
000a
0003
fff5
fff5
0000
fff3
fff6
fffb
fff8
fff7
fffc
fff3
fffa
0009
fff6
fffa
fff8
fffa
fff5
fffe
fff4
0002
fffb
0006
0000
0006
fff6
fffe
fffb
0004
fffe
0007
fff8
fff8
0006
0001
fffc
fff4
fff5
0002
fffb
fffb
000a
0002
fff5
0004
fffa
0005
fffb
0003
0002
ffff
fffa
ffff
0000
fff3
fffa
fff8
fffa
0002
0005
fff9
0006
fff7
0006
0000
0005
fff5
fff3
0001
fff8
0003
fffc
fff5
0003
0009
0006
fff3
0002
fff6
fff4
fff8
fff9
fff3
0008
0004
fffb
fff4
fffc
fffc
0002
fffe
fffc
fff9
fffe
000a
fff2
fff8
fffe
fff7
fffd
fff7
fff8
fffc
fffa
0003
fffb
0009
fffa
0000
fff6
fff8
fffd
0007
0008
0005
0004
fff3
fffa
000b
fff9
ffff
0004
fffc
fff8
0001
fffb
fff9
0001
fffb
fffa
fff9
fff3
0004
0004
0000
0002
0002
fffc
fff9
fff4
fff5
000a
fffd
fffc
0005
fff3
0007
fffc
fffc
0001
fff5
fff6
fff5
0006
fff5
0009
0008
fff6
0003
fff5
fffe
fffe
fff8
fff6
000a
0006
fff5
fffe
fff9
fffd
0000
fffa
000c
fff9
fffd
0005
0003
000c
fff3
000c
fffa
0006
fffa
0008
fffa
0000
fffe
000a
fff8
0002
000a
fffe
fff8
0001
000a
fff4
fff5
0002
0006
fffb
fff9
0000
0008
fff6
fff6
0001
fff4
ffff
0009
0004
0006
000a
0001
fff6
fff4
0000
fffa
0007
0000
fffd
0004
fff8
0008
fff6
fff7
fff3
fffd
0006
0002
fffc
0006
0002
fffd
fffa
fff6
fff6
fff6
0002
0004
0000
0001
0003
fffc
0001
0007
fffd
0008
0002
0007
fff4
ffff
0006
fffb
fffb
0003
0007
ffff
0000
fff9
fff5
fff3
fff7
fffb
fff5
fff9
0004
fffe
0005
0008
fffe
0009
0005
0003
fff9
fff3
fff8
000a
0008
fff8
0008
0004
fff6
0004
fff9
000b
fffd
0000
0007
fff7
0003
0005
fff6
0005
000a
0006
0000
0003
0005
0009
fff3
fffd
fff4
ffff
0001
fffe
fff6
000b
0000
fff8
0007
fffb
0009
0008
fff4
000a
fffe
0006
000b
0007
fff7
fff3
fff5
0009
0005
fffd
fffe
0000
0008
fff5
000a
fffd
fffb
0008
0007
000a
0007
0000
0008
000a
0009
0000
ffff
fffa
fff6
0004
0002
fffe
0009
fffd
ffff
fff8
0008
0006
0000
fffc
fff6
0002
fff4
0000
0000
fff8
fffb
0002
fff9
fff6
0000
0002
0002
fffb
0000
0008
ffff
fff7
0005
000b
0001
fff6
0000
ffff
0003
fff3
0000
fffd
000a
fff4
fff4
000a
0008
fff8
0007
fff7
000b
0004
000a
0004
ffff
0005
0001
0000
fffc
0006
fff7
0000
000b
0007
fff7
fffb
fffd
0004
fffa
0001
fff5
0006
fffa
fffb
ffff
fff5
fffb
fffe
0005
0008
0008
fff9
0000
fffd
fff7
fffb
ffff
0001
fffd
fffd
0005
fff8
fff6
fffd
0003
0004
fffe
0005
000b
fff4
fffa
fff5
fff6
0006
0001
fff5
0002
fffb
fff6
0003
fff5
fffc
0001
fffa
ffff
0000
fff5
000a
fffb
fff8
fff6
0008
0003
000a
fffc
0005
000a
fff7
0001
0007
fffe
000b
fff3
0009
fff7
0006
0000
0000
fffa
fff9
0002
fff8
fffa
fff4
fff5
fff6
0002
ffff
fffb
fffc
0009
fff7
0000
0005
ffff
0008
fff6
fffc
fffa
0009
fff4
fff9
fff7
0002
fffa
fffc
fffb
fffc
fff7
fff9
0001
000a
fff7
fff7
0000
ffea
fff3
fffe
fffa
0005
0000
fffd
0003
fffc
fff4
fff8
000d
000a
fffb
0006
000a
000b
000a
0002
fff5
fffb
0014
0008
0010
0000
fffa
000c
000a
000e
0015
fffa
fff8
ffec
0002
0022
0002
fff3
ffef
fff6
000e
fffb
0008
0011
0002
fff6
000f
fff5
0004
000c
ffe6
fffa
fffe
000d
0010
0003
fffe
0016
000f
fff8
fff2
fff8
000e
fff3
fffe
0004
0004
fff6
0010
000f
0004
0007
fff8
000c
000b
0002
fffc
0005
fff7
000a
0001
000f
000c
0007
fff4
fffa
fff8
0008
0009
0006
fff7
000c
0000
000e
000a
0003
fffa
0009
0013
0006
fffe
0015
0011
0000
fffd
000a
fff6
fffc
fffe
0010
000b
fff8
fff1
0004
0010
ffff
0000
0007
0011
0010
fff2
fff9
ffed
fff1
fff3
ffea
fff2
0002
fffc
ffea
ffff
fff6
0009
0009
0006
0004
fff9
0000
0006
000a
000e
0010
0014
fff7
ffeb
0007
000d
0018
fff8
0001
fffa
fff0
ffec
ffff
000b
000e
fff8
fff5
fffa
000d
0004
0005
fffd
fff5
0001
000e
0008
fff5
0001
fff4
0008
0005
0010
0005
000b
0004
ffe5
ffe4
fff7
0008
0017
fff4
fffc
0008
fffb
0016
ffef
fff3
0002
0002
0011
0006
fff4
fff3
fff1
0009
0008
0007
0007
0001
fffa
0001
0007
fff8
fff6
fff3
0001
0000
000c
0002
ffff
0007
0006
fff6
0002
0007
0002
0009
0010
fff6
fff5
ffff
0007
0001
0000
fff6
fff0
0007
0007
fff9
fff1
0004
000a
0012
ffee
fff6
fff6
000c
fffc
ffff
0018
0007
000c
0006
fffa
0008
000b
0000
0008
fffa
ffe0
ffee
fffc
0006
0000
000b
ffd4
ffed
fffa
000e
000c
ffee
fff9
fffd
0010
0008
fff5
0001
0001
0002
fff2
fff2
0000
0018
fff9
0004
ffe8
ffec
fffa
0002
0007
ffea
fff1
fff3
fff2
fff6
ffff
0000
0007
0003
0004
0008
0000
0004
0008
0007
0009
0003
0007
0007
fff1
fff8
0000
0012
0000
000a
fff6
fffc
ffff
0004
fffd
0000
000b
0009
ffed
0006
000a
fffb
0000
fff7
fffa
fff5
fffb
0005
0011
fff2
fffe
0005
0007
0000
0008
0009
0004
000a
fff7
0011
fffe
0007
0000
fff0
0007
fffe
0007
0004
ffef
ffff
0005
0014
000a
0000
fffd
ffc1
0009
0011
0018
0005
ffe4
ffed
0014
0006
ffeb
ffed
0003
0008
fff8
fff6
ffe7
0002
0004
fff3
000c
000a
000c
0000
fffc
000c
ffd7
ffeb
0000
fffb
0006
ffe1
fffa
0011
0014
fff8
fff3
fff6
0002
fff7
fff4
fffc
0005
0009
fffd
000b
fff5
0014
ffff
0001
000a
fffa
0000
fff2
fffd
0007
fffd
0002
fff9
000a
0003
0006
0010
0008
0004
fffc
fff4
0000
fffc
000b
0010
fffb
fff5
0000
0004
0012
fffa
fff4
fff4
fff2
ffff
fffb
ffff
000e
fffe
ffe8
000a
0004
0014
000b
ffee
fff5
0006
fff9
fff6
ffe6
fffb
0012
0000
0000
ffe6
fffb
0007
fff0
fff8
0018
0007
fffc
0000
0016
0006
0000
000b
0004
0002
000b
0005
fff2
fff8
0005
fffc
0008
fffe
0003
fffb
000a
0010
fffc
0000
000b
0007
fffa
0007
0015
0009
000d
0001
0003
0009
0006
fffd
fff7
fff9
fff4
fffa
0006
fff6
0007
0004
0001
000b
000c
fff8
0012
0000
0001
fffb
0001
000f
fff7
fff3
ffff
fff6
0000
ffec
fff9
0005
0015
fff7
fffa
fffb
0001
0003
000d
0011
000c
0012
000e
fff7
0000
0006
0000
0004
fffa
ffee
fff0
0000
0000
ffff
0006
fff4
fff8
fff1
fff8
0012
0003
000c
fffa
fffe
0011
fff2
0006
0000
fffc
fff9
fff9
0007
fff6
ffee
fff0
fff9
000d
000e
000c
ffff
0009
0006
fffc
fff9
ffff
0006
0002
ffec
ffee
0000
fff3
000e
fff3
ffe8
fff0
fff2
0004
fff4
fffc
fff4
0005
0000
0004
000c
000e
0000
000d
0004
000f
000b
ffec
fffa
ffef
ffec
ffef
fffa
000b
0012
fff5
0000
0004
0012
000a
fffa
0009
fff4
0005
0001
fff9
000a
fffb
fffa
0000
fffb
0006
0008
fffe
0000
0006
0001
0001
0003
0011
0008
0006
0010
000f
0002
ffff
000d
000d
0000
000c
0010
0004
ffe8
0000
fff9
000c
0007
0004
000b
0012
000d
ffff
fff5
fffe
000a
fff2
0006
fff2
fffd
fff8
fff4
ffeb
fff4
fffa
fff6
0000
fffc
fff0
0018
0009
ffff
ffeb
fffa
0004
ffec
ffe9
ffff
000b
0002
0007
fff9
0002
000e
fffd
fffb
fff7
0008
0013
0009
0007
0007
0000
000e
ffef
0000
0009
ffff
0005
0004
0000
fffb
0000
fff7
0003
fffb
fffb
fffd
000e
0001
0001
0000
0000
0007
0009
0000
0009
000d
fffe
0004
0004
fffa
000b
fffd
0000
fffc
0009
0000
0001
000c
fffe
fff0
0009
0008
fffe
0007
fffb
000d
0007
fffa
0006
0000
0000
0003
0001
0005
0002
000a
0006
fff8
0009
0004
000a
ffef
fff5
0006
fffa
fff5
0006
0009
0004
0000
fffa
0014
0005
000a
fff5
fffe
0012
0010
0001
0007
0017
0006
fff6
ffeb
0003
0012
0000
fffa
0005
fff1
fff8
0004
fff5
000f
000b
0000
0008
0004
000d
fffd
000f
000f
fffc
0004
0005
fffb
0009
fff5
ffee
0002
000f
fffc
0012
0007
fff8
0009
001b
fffa
fffd
0008
0002
0007
000b
000b
0005
0003
fffc
0006
0009
0006
0003
0009
000d
000f
0005
000e
0010
0006
0001
0005
0004
ffef
fffb
0006
0012
fffd
ffe6
0003
0004
0011
0010
ffe8
fffa
fff8
000e
0007
ffe7
0002
0011
0020
0016
ffee
ffef
0000
0000
fff4
000a
0006
fff3
ffee
fff6
0016
fff8
fff5
ffed
fff5
000c
000b
ffeb
fffc
fff4
fffa
fff8
fff3
000b
fffb
ffff
000d
0003
0005
0016
000c
ffef
fffa
fff9
000b
0009
ffee
0006
0000
fff8
0012
fffd
fffc
fff9
fffb
0002
000a
0011
ffff
0000
000f
fffc
fff8
fff8
fffd
000f
fffa
fff8
fff5
ffee
ffe9
ffff
0001
0000
ffec
ffef
fffd
0011
ffff
0009
000b
0008
000e
ffff
0003
fff6
0004
000c
0013
0014
0007
0003
fffc
0000
0019
000a
0000
0005
0006
fffe
fff0
0003
0002
0002
0005
fff2
001d
0011
ffed
ffff
ffe8
0000
0007
000b
0010
fffa
fff5
0008
0009
0002
000a
fffc
0000
fffa
000e
0001
0011
fffb
0000
0007
fff6
fffa
fff2
0005
fff5
fffb
0006
0010
000b
fffa
ffee
0009
0006
0006
fffd
000b
fffd
0002
fffd
0010
0018
0009
0004
0002
fffb
0000
000c
0000
fff6
0002
fff4
fff6
0000
fff6
0012
0018
0001
ffff
fff3
000a
0007
000d
ffff
fff4
0001
fff7
0002
ffff
0002
fff7
fff4
0012
0013
fffe
fffe
000f
0008
000d
000a
0005
0011
fff6
0003
0000
0004
0016
fffe
0009
ffeb
0006
fff6
0000
fff0
ffee
000a
fffb
000e
0002
0015
0005
fffd
0008
0004
000a
0004
0012
0002
0000
ffde
fff3
fff5
0011
0006
fff1
fffa
ffee
ffff
0018
ffff
ffee
fff8
0015
0011
0000
fffa
0007
fffe
000d
fffe
0006
000d
fff7
0004
0016
001a
0003
0000
0007
000f
000d
0007
0007
0009
fff6
fff8
0000
0000
fff9
000d
0000
fff5
000e
0000
0003
0006
0009
000d
0001
fff6
0002
0015
0004
0006
0004
0011
0013
0000
0004
ffed
fffe
fffd
000c
fff3
0002
0005
000d
fff8
fffa
000c
001d
0012
0007
fffc
fff6
0004
0006
fff9
0001
0005
0004
000c
0001
000a
fffe
0001
0008
0007
ffff
0003
0005
0000
001e
fff4
ffeb
ffe8
0013
001c
0003
0006
ffeb
0000
ffff
0000
fff1
fff6
0013
000e
0006
0004
0000
0010
0009
fff7
ffe7
0000
fff5
0018
000c
000c
0000
000e
0006
fff4
0003
fffc
0013
0002
0009
0000
fff3
0013
0000
0012
0000
ffed
000a
0011
0000
0001
0009
0001
0003
fff1
fffd
fffb
000d
0000
fff5
fffa
fff6
0002
fffe
ffff
fffc
0000
fffe
fffc
0000
0006
000e
fffe
0005
0013
0005
0004
0003
000a
fffe
fff3
ffe9
fff3
0006
fffd
000e
fff4
ffe9
000a
0011
fffd
0005
000a
0007
000f
000a
000e
002b
fff9
fff6
fffe
000c
0020
ffff
fffa
fff7
0000
0000
0000
fffc
fff9
0010
fff9
0005
fffd
000b
000a
0004
000f
0005
0006
fffe
0009
0005
fff8
0005
0009
fff6
0001
fff5
000f
0000
0005
fff4
ffee
ffed
0000
0015
0004
ffee
0005
fffc
000a
fffa
fff1
0013
0000
fff6
000c
0004
000f
fff8
fffe
fff8
0006
ffec
fffd
fffe
0007
000e
000d
0000
fff6
0015
0007
0000
0000
0003
fff7
fff5
fff1
000a
0006
fff4
fffa
fff2
0001
0012
0003
fff5
fffd
0010
fffe
fff6
fffb
0000
0000
fffd
fffd
ffea
0007
fffa
fff8
fff9
0003
ffff
fff6
0009
0000
0009
fff3
fff7
001b
000e
000c
0012
0012
000a
0006
000e
000b
fff3
fff5
fff3
0004
0006
000b
0000
000d
0001
fffd
ffff
001a
0010
0003
0008
0009
0017
0013
0011
0018
0011
ffe6
0029
0007
0005
0008
fffc
fffd
fffc
fff5
fffc
000c
ffea
fffe
0006
fffa
0001
0005
0000
0006
0006
0006
fff4
fff3
fffe
0015
0000
ffeb
ffef
0002
0008
0002
fff2
0004
0001
ffec
fffc
000e
fffa
0003
000a
fffc
fff5
0000
fffd
0002
fffb
fff8
fff0
fff9
fff8
fffd
fff7
fff1
fff8
000e
fffe
ffef
000c
000c
000a
fffd
000f
0002
000c
0003
0000
000b
fffc
fff0
fff5
fff9
0003
fffa
fffd
ffff
fffa
0021
0020
0004
0003
fffa
0015
fff7
fff8
fffa
0009
ffe0
fffb
fffe
0012
fffb
ffd3
0004
fff7
0002
0006
0011
0005
0004
0009
0002
0006
fff9
000f
0010
0000
0002
000e
fff7
000b
0009
fff5
0012
fffe
0002
000a
fffc
000a
fffe
0000
fffc
0000
0004
fffd
0004
0006
0002
fffd
fff2
000d
fff7
ffea
ffeb
0004
fff5
0009
0006
000e
0006
0000
0001
000b
fffd
0005
000b
0001
fff6
0006
0015
0005
0006
ffe7
fff8
0001
0009
ffff
ffeb
fff6
fffe
0001
fff8
fff6
0010
000b
0000
000a
0014
0009
fff7
fffd
000f
002d
000a
fff6
fff8
ffff
0028
0000
fffd
fffb
0000
000a
ffec
fff8
0001
0002
fffb
000b
0009
fffe
0009
ffff
fffc
ffff
fff4
0010
001c
000f
000c
ffff
0008
001a
0005
ffee
0008
fffa
0009
0003
fff5
fff9
0000
fff9
0007
000d
0004
0001
0014
000c
0012
fff6
000c
ffff
fff3
0003
000b
fff6
ffff
fffb
fffa
0009
0004
fffe
fffa
fffd
0000
fff4
fff9
fff3
fffb
0003
fff3
000a
fffd
ffff
0006
ffff
fff7
fff6
0001
fff7
0002
fff6
0009
0003
fffb
ffff
fffe
fff5
000a
ffff
ffff
fffd
fff7
fff9
fffd
fffd
fff5
0009
0008
fff4
fff5
0002
fffe
0003
fff3
0009
fffa
000c
fffc
0000
fff4
0009
000a
0003
fffe
fff7
0001
ffff
fffa
fffa
fff7
fff6
fff4
0007
fff4
0001
fff9
fff6
fff9
0009
fff3
0008
fff4
000a
0003
ffff
0000
0002
0003
0001
fff3
fff3
fffc
0008
0008
fff5
fffb
0009
0000
fffb
0000
fff7
0004
000b
fff5
fffa
0006
fff4
fff6
fffb
0005
fff9
0009
fff5
0005
fff8
fff9
0009
0000
fff6
fffd
0001
fffb
fff6
fff5
fff8
000b
fff2
fffc
fff4
fff7
0001
fffe
fff3
0009
0007
fff9
fffd
0005
0007
fff4
fffe
fff9
fff8
0007
ffff
0000
000c
0007
0000
0005
0008
0001
fff5
000b
0003
fff5
fff8
fff5
fff8
fff9
0000
0000
fffe
000a
000b
0000
fffa
ffff
0009
fff8
fff7
fff4
fffe
fffd
0005
000a
0000
fffd
0008
0007
fff6
0000
0001
0003
fffb
0001
ffff
0002
0009
000b
0006
0001
0002
fffc
0006
0003
0009
000b
fffe
0009
ffff
fff8
fff5
fff7
fff8
0002
fff4
0001
fffd
fffa
fff3
fff9
0006
0001
fff4
0000
0006
0005
0005
fffa
fffc
0008
0003
fffd
0003
0008
fffb
0000
fffa
0004
ffff
fff8
0007
fff5
0004
fff7
0000
fff7
0000
fff6
0000
fff9
fffa
0009
0000
fffe
fffc
0002
fffb
0006
0001
000b
000a
0006
0006
fffd
fff6
0000
fffc
fffc
0004
0000
fff7
000a
fff2
fffb
fff7
000c
0000
0008
0000
0005
ffff
0004
ffff
0000
0003
fff9
fff6
fff3
0002
0004
0000
fffc
fff3
fffe
fffc
0009
fffa
fff8
0001
0005
fffc
fff3
ffff
0002
0008
fffe
fff7
fffc
0003
0002
fffb
fff3
0008
fff3
fff6
0007
fff5
fff5
fff3
0002
0002
fffe
fffd
fff7
0004
000b
0006
fff8
0004
ffff
fffd
0006
0005
0001
0009
0004
0001
0000
0004
fff9
0009
0003
0006
fff7
fff6
fffd
0006
fff3
000b
0004
0002
fff4
0006
0000
0005
fff2
0006
fff4
0006
0008
0000
0004
000b
0009
fffc
0000
0003
0003
000b
fff6
fff7
fffd
fffe
fffd
ffff
fff5
0002
fffc
0006
0000
0007
ffff
0004
fffc
0001
fffe
fff7
fff4
0000
fffd
0009
fffc
0004
fff4
fffb
fff5
fffb
fffc
fff6
fff9
0003
0000
fffb
0002
fffb
fff8
fffd
0000
0007
fffc
0003
0004
0000
fff9
fffb
fffc
fff6
0008
fff5
fff2
ffff
0007
fff3
0000
fffb
fffc
0004
0000
fff5
fff5
fff3
fff9
0008
fff6
fff7
fff8
0006
fffd
fff7
000a
0008
ffff
0001
fff5
fff7
0007
0004
0008
fffa
0002
0008
fffa
fffe
fffe
000a
ffff
0002
0000
0003
0008
fff6
0006
0009
fffe
fffc
fffa
0008
fff5
fffc
0008
0009
000c
fffb
0003
0000
fffa
0004
000c
fff9
0008
fff5
fff3
0007
fffb
0007
0007
000a
0009
fff1
fffd
fffb
fff3
0000
fffb
fffe
fffb
fff7
fff8
fffa
0002
0001
fffc
fff4
0000
ffff
fff7
fff6
fffb
0000
0003
fffd
0000
fffc
fffe
0006
fff6
0003
0000
fff3
fff5
0000
0007
fff8
0008
fffa
fffb
fff8
fffd
fff7
0007
fffd
ffff
fff3
ffff
0001
fff4
fffb
ffff
fffe
0003
000a
fff3
0009
000a
0000
fff8
0008
fff6
0000
000b
fffa
fffd
0009
fffe
0008
0000
0000
0003
fff6
0000
0000
000a
0005
0000
0009
fff2
fff3
fff6
fff5
000a
fff9
0006
0003
0005
fff5
0000
0004
0008
0007
0003
000a
fffd
0000
0000
fff8
0007
fffa
fffa
0007
0007
ffff
fff5
fffb
fff8
fff9
0007
fffa
fffa
fffc
0008
0003
0000
0005
0001
0008
fffc
fffb
0002
0000
0003
fff5
0003
ffff
0008
0000
fff7
0004
fffe
0002
ffff
0001
0000
fff5
fff9
fff4
0001
0002
fffb
0002
fff6
0001
0003
0009
fff5
fffe
fff5
fffd
0005
0004
0006
fff9
fff6
fff3
fffc
0000
fffb
fffb
fff2
0008
fff5
fffe
0000
fff3
0009
ffff
fff2
fffc
fff8
000a
0008
fffc
fffc
fff9
ffff
fff9
fff6
0005
fffc
0000
fff8
ffff
000a
0003
0008
0009
fff4
fff8
0009
fffd
000c
fffa
0004
0000
fff9
fffd
fff2
fff4
0005
0005
0005
0007
ffff
0002
0008
0003
fff3
fffd
fffd
fffa
0000
fff3
fffb
fff6
0004
fff5
0000
fff8
0004
0002
fffa
0005
0005
fff5
0007
0004
fffd
0008
0008
fffc
0000
fff8
ffff
0003
000a
0008
fffa
0007
fff7
0005
0004
0009
fff2
0007
0002
0000
fffe
0005
0006
fff7
0008
0000
0007
fff5
0004
0001
0007
fffb
0008
0006
0006
fffb
0006
fff8
0007
0004
fffd
fffa
fff3
0006
fff7
fff8
0000
fffe
0009
fffb
0006
fffc
fff9
0000
0000
0000
ffff
0003
fffa
0002
fffa
fff9
fff9
0004
0006
0004
0004
fff8
fffe
fff2
0006
fffc
fffb
0006
fff3
ffff
fff2
fff3
fff9
0005
fff8
0002
fffb
0008
fffc
ffff
0009
0009
fffa
fff7
fff7
fffb
fffe
fff3
0001
fff4
fffb
fffd
fffe
fff4
fff8
0002
fff6
0003
fffa
0007
0001
fffc
000e
fff3
fffb
fff6
0005
0006
0000
0003
fffe
0004
fff7
0007
fff4
ffff
ffff
0002
fffc
0008
fffd
fffe
fff7
fffe
0000
fffa
0008
fff7
fff7
fffd
fffa
ffff
0007
000b
fff8
fffb
fffc
0000
fff8
0001
0002
0004
fff9
fff8
fff1
fff5
fff9
fffd
ffee
fff4
0008
fff9
0008
fff3
0000
0008
000b
0002
0000
0004
0003
0003
0004
0003
0006
0006
000b
fff7
fff9
0009
0000
000c
fff8
0007
0002
fff9
fff7
fffa
0003
0004
fffe
fff8
0000
fff8
0008
fff9
0005
0000
fffe
0002
fffa
fffc
fffd
fff7
fffc
0001
0005
ffff
fffa
0000
0009
0004
0008
0007
0007
fffc
000a
fffe
0006
fffa
fff5
fff5
fff7
0006
fffa
0008
000d
fffa
0000
fff7
fffd
fff8
fff6
000a
0005
fff5
0000
fffd
0007
0008
0001
0000
0009
0008
0009
fff5
0004
fff9
0008
fffe
0000
0006
000a
0004
0004
0003
fff5
fff3
0005
fff4
fff4
fffe
0003
fff9
ffff
fff2
fffd
fff6
0008
fffd
fff9
fffc
0007
ffff
000a
fff9
0004
000d
0002
fffa
fff4
fff7
0006
fff8
0000
fff4
0003
0005
fff4
0008
fff4
0004
fff6
0005
fff5
0000
0002
fff5
fffc
fff4
0001
0002
fffc
fff4
0002
ffff
fffb
fff0
fffa
fffb
0000
fffb
fffe
fff4
0007
0004
0000
000b
0008
fffd
0000
fff7
0002
fff8
fffe
fff8
0007
fffe
fff9
0004
0008
0003
fffe
0000
0000
0008
fff4
0004
fff7
0002
fff8
000a
0007
fffc
0002
000c
0001
0005
0009
0000
fff9
0002
fffd
fff7
fff9
000a
0008
fffa
0008
fff7
0002
0001
000c
000b
fff0
0006
fffa
0000
0006
000d
0000
fff9
0009
fff7
fffc
fff4
000d
0006
0000
0003
fffe
fff6
fffd
fff4
fff6
fff6
fff4
fffd
fff7
0009
fff5
0001
fff6
0005
0008
0005
0003
fff7
0004
0001
fff9
000b
0007
0007
fffa
fffa
0000
fffc
ffff
fffa
000b
fff2
0008
0002
0008
0001
fff8
fffc
fff7
fffc
0002
fffb
fff3
0004
0009
fffb
0006
0000
0004
0000
fffc
0005
0002
0003
fffe
000a
fffe
0006
0000
0000
fffc
fffa
000e
fffc
000d
ffff
0004
fff8
000d
fff9
fff7
0000
fffd
fffb
fffa
0001
fffc
0005
fffa
0001
0000
0001
0007
fff6
fffa
0007
fff4
fff4
ffee
fffd
0009
ffff
fff9
fff6
0000
0000
fff7
0000
0007
fff3
0003
0007
fff3
0008
fffd
fff5
0009
fff5
0000
fff7
000b
0007
0000
0008
000b
fff9
ffff
fffe
fffc
fff5
0006
fff9
ffff
0003
fff3
fffd
0006
fff9
0000
0000
fffe
0007
fff7
fff3
0006
fff9
0005
0006
0003
0000
fffb
fff2
fffd
fff3
0000
0003
fffb
fff3
0006
fffc
0000
0000
fff9
0001
fff3
fff6
fffb
fff3
fff8
fffa
0003
0000
fff1
fffc
0002
fff4
fff1
ffff
fff9
0006
000e
fff5
ffff
fffc
0004
000a
0004
fffa
0004
0000
fff9
0004
fffb
0008
fffa
fff6
0002
0007
fff5
fffe
0006
0007
0000
fff5
fffe
fff6
0005
fffe
fff5
fff7
fff9
0002
0004
fffd
fffa
0005
fff7
fff7
fffc
0006
fff9
fff3
fffc
0004
0007
fff6
fff7
0004
fff5
0001
000f
fff2
fffb
fffc
0004
fff7
0000
fff8
0001
0002
fff0
fffb
0006
fff3
fff2
fffe
ffff
fff9
0008
0006
fff2
fffa
0004
fffc
0002
fff7
fff9
ffff
fff9
fff6
fff8
ffff
0009
fff0
fffd
fffe
0001
fffe
fff2
ffff
fff8
fff6
fff5
fffc
fff9
fff0
fff5
0002
fffc
fffd
fffd
0008
fffd
0007
fffc
fff8
fff1
fff5
fff9
0001
fff8
fff5
000c
fff9
0009
0009
fffe
0004
0000
0001
0004
fff5
0001
000f
ffff
fffb
fff6
0005
0000
0007
0000
fff8
0000
ffff
0007
fff6
0004
fffe
000e
fff7
fffc
fff1
fff7
fff7
0002
0001
0005
0000
fff8
0005
0001
ffff
0001
0002
0000
0000
fffe
0002
0003
fffb
fff7
fff8
fff9
0001
fff9
fff7
0003
fff5
fff5
fffe
fffa
0006
0006
fffd
fff9
fff9
0007
0003
fff0
0005
fffb
fffb
0003
000f
fff8
fff2
0008
0000
fffc
fffa
0000
0004
fff2
fff9
fff3
0002
fff9
fff4
fff1
0008
0000
0008
000d
fffb
fff6
fff0
0001
fffb
000e
fff5
fff8
fff9
fff3
fff8
fffc
fff1
000b
ffff
fff4
fffa
0007
fff2
0000
fff7
fffe
fff6
fff2
fffb
0004
fffc
0001
0003
0001
fff3
fff3
0000
fffd
000b
fff7
fff3
0001
fff1
fffc
ffff
fff9
fff1
fff2
fffc
fffd
0001
fff3
0002
fffa
fffc
fff7
fff4
0008
0006
0003
0003
fffb
fff0
fffe
000b
fffd
fff4
fff2
0004
ffff
ffff
0004
fff0
0000
0008
fff4
0000
fff2
fff2
fff5
fff5
fff1
fffc
0000
0001
fff1
ffff
fff3
fff0
0006
0004
fffe
0001
ffff
fff6
0008
fff5
fff1
0006
fff6
0008
fffd
fff0
000f
0004
fff2
fffc
fff3
fff8
fffe
fff8
fffc
fffb
fff2
fff4
fffc
fff7
0002
fffe
0004
000d
fffb
0008
0002
000a
0001
fffe
fff2
fff8
fff6
0002
fffd
0005
ffff
fff1
fff6
fff7
0004
0006
fffa
0005
0001
fff8
fff8
fffe
fffa
0008
fff2
fff7
0009
0000
fff2
0006
fffc
000d
0007
000c
000b
0003
0011
fffb
fff7
fffb
fff7
fffb
ffee
0002
000e
fffd
fffa
fffc
fffe
0007
fff8
000a
0013
001c
0006
0010
fff9
fff9
fff7
fff2
0013
0009
0012
0000
ffe8
fffa
fff8
fffe
ffea
ffed
fff6
0010
0010
ffff
000a
fffa
fffb
0000
fffa
0008
fff6
0014
0007
ffff
0011
000f
fff9
0007
0012
0003
ffff
fffe
ffff
fff9
fff7
fffd
fffc
0008
0003
0012
0007
000a
0006
0004
fffa
000b
0002
fffe
fff6
0009
0000
0007
fffe
0001
fff4
fffb
0011
ffee
0007
0000
000c
fffa
fff5
0003
fffb
000e
fffc
0004
000e
0001
0010
fff1
0007
ffff
000e
ffec
fffe
0004
0004
0009
ffff
000e
000f
fffb
0000
001a
000a
0020
0013
fffc
0009
0002
0000
fff9
ffff
fffb
fffa
fff9
fff3
fff5
0001
000f
fffa
0001
fffc
fffa
0002
fff7
0001
fffc
fffe
fffa
0006
fffc
fffa
0005
fff7
fff3
fff0
0009
fff9
000a
0002
0004
000d
0001
0000
0008
000a
fff2
000c
fff7
fffd
0000
fff2
0004
0000
fff5
ffe6
fff8
fff2
ffff
fff1
fff1
0000
fff5
0007
0000
000a
0013
0003
000b
0010
0004
0005
000f
000a
fffd
fffc
ffee
0002
fffc
ffe9
fff3
fff7
0000
0000
000a
000c
0005
0000
0011
000b
ffff
fff8
0004
000e
0008
0011
fffa
fff3
ffeb
fffe
0007
ffff
0003
0000
fffe
0000
0000
fff5
0004
fffd
0006
0002
000a
0013
fff3
000f
fffd
0014
0001
fff1
0006
fff1
fff3
fffc
fff6
000b
fff0
fff1
fff7
0014
0011
0017
fffb
0009
0000
0007
fff9
0000
0008
ffed
fff9
0000
ffe5
0006
0000
0003
fff8
0020
000d
0005
fffe
000f
0032
001b
fffb
0004
0016
fffa
fff3
fff2
fff9
0000
fff7
0001
0000
fffc
0013
0003
0000
0001
0006
0007
fff8
0006
fffd
0000
ffea
fffe
fff4
0006
ffff
fff8
0001
0003
fff9
fff9
fffb
fffe
0006
0009
fffb
fff9
fffd
0003
fff4
0006
fff9
0010
fff4
0004
0008
fff3
fff4
fff4
fff9
0008
fffe
0006
0007
0004
fffb
fffe
0008
000f
ffff
0011
0000
0014
000d
fffa
0005
fff6
fffb
fff1
fff9
fffd
0000
fff2
fff6
0009
fffb
fffb
fff7
fff9
fff3
ffee
000e
ffff
0015
fffd
000b
0019
fffa
0017
0000
fff6
0007
0022
0002
ffee
000c
fff5
000f
0008
fffc
0012
fffe
0000
fffe
fff7
0001
000a
ffec
0005
0007
fffd
fffb
0010
0012
000b
fffe
0007
000f
0000
0003
0000
000c
fff0
ffe3
ffeb
0000
fffd
0016
fffb
0001
0004
0005
fffe
0004
0004
fff8
0008
0005
fffb
fff8
0009
fff8
000b
0004
fff5
000f
000e
0016
0005
fff5
fff7
fffb
0008
fffc
fff7
000b
0006
fffe
fffc
000e
0009
0000
fffc
0001
0005
ffef
0000
0004
000e
0006
fff5
fffd
fffe
000d
0002
fff8
ffef
fffe
ffef
ffec
fffc
fffe
fff7
fffa
0007
000e
0006
fff6
fff3
fff9
fffe
fff6
0001
fff3
fff4
fffc
fff7
fffd
fffa
0001
fffc
0000
fff3
000a
fff4
0004
0005
fff6
fff5
0006
0002
fff7
fffb
fffc
0009
fffd
ffff
0000
fff3
0001
0009
0009
0000
fff7
fff8
0001
0001
fff9
fff3
0010
fffa
0008
0002
0010
000f
000b
fff5
0000
0000
fffb
0004
0017
0000
000d
0002
0003
0011
000c
001b
0010
0000
0005
0002
000c
0000
fff5
0005
fffc
0011
fffc
fff4
fff5
fffe
fffe
0004
0010
fff4
0003
fff8
0001
0000
0001
0007
0006
fffa
0004
0004
0024
0016
000a
0009
0001
0009
0008
0002
ffff
0010
0002
fffc
0010
0007
0007
0009
fffa
0007
0002
0001
0012
0003
fff4
fff8
fff1
0018
0024
0005
fff8
0005
0010
0007
fffd
0006
0006
fffc
0006
0014
0005
0001
0013
0012
000e
0007
0006
000b
fff7
fff5
fffa
fffe
0004
fffa
fffe
0003
fff9
0000
0005
fff7
fff9
ffe7
0004
fff6
0001
000b
fff8
fff9
fff7
ffff
0009
0007
fffe
000b
0000
0000
fffc
000b
fff7
0003
fffe
000b
fffd
fff5
fffa
0001
fff8
fff3
fff4
0006
0009
ffed
0000
fff5
0004
0005
0004
0000
0007
0003
0004
0007
0002
fff7
fffe
0006
0003
0017
0013
0018
0003
fff1
002e
0010
0002
fffd
000e
001d
0011
fff2
0003
fffa
0020
001c
fffa
0001
0008
0010
fffc
fff0
fff7
0000
0003
000f
000b
000f
000d
fffa
fffd
000a
ffff
fffe
0007
0001
fffc
fffb
fffa
fffc
fffc
000a
000e
fff6
000c
0006
fffd
fff3
0002
0000
fff6
000a
000c
0006
fff9
ffff
000a
0004
0007
fff4
0001
0000
0008
fffe
000a
fff3
0009
000b
000c
0006
0006
0005
fffa
0009
fff1
0008
fffc
fffd
0006
fff6
fff4
0017
0014
fffd
0000
0000
fffc
0002
0000
fff3
fffe
0008
fff9
ffff
0017
ffff
0005
0003
fffd
0016
fffe
fff5
ffff
0000
0013
0003
0004
0009
0004
0028
000f
fffc
0001
fffa
0012
0002
0002
0000
0003
001f
0005
fff9
fff3
0000
0013
0000
000a
0007
000a
0016
0000
0001
0015
0001
001b
fffd
fffe
fffa
0007
0014
fff7
fff6
fff6
0006
fff2
fff4
000a
0008
fffb
fff1
0016
000e
fffe
000c
000d
0014
0014
0005
0011
fffd
0011
0003
0010
0008
0004
0002
fffe
0012
0012
fff7
0009
fff6
fff3
fff0
0007
0002
fffd
0013
0012
0005
0008
0002
0004
fffe
0002
fff6
0000
0005
ffe6
000d
0014
0017
000f
ffd5
0007
fffe
0006
fffc
fffc
fffe
0011
0007
0004
000c
0007
0002
fffe
fffb
000f
ffec
fff8
fffb
000b
0010
fff7
ffee
0013
fff9
0013
0008
ffff
0000
0006
0007
0005
000a
fffe
fff9
0009
0007
0012
000e
fff5
0007
0005
000d
000c
0009
000b
0009
0011
000f
0012
000b
0012
fff1
fffa
0002
fffd
fff9
fff6
fffb
fffc
0010
fff9
fff2
ffe5
fff1
0001
0012
0017
000e
0001
ffff
001a
0002
fff1
fff1
fffc
0002
fff2
ffec
0008
0000
0001
0011
0002
ffff
001a
0016
0008
0017
0000
000b
0013
0013
fffc
fff5
0001
0003
000e
0004
000a
fff0
ffe1
ffee
fff9
0002
000e
ffe8
ffee
0002
0000
000a
fff1
000d
000e
0001
0010
0000
fffb
fffb
0008
0005
fff3
fff6
0000
000f
ffea
ffef
fff7
ffe6
0007
0004
ffec
ffde
fff8
fffd
0003
fff3
0009
ffff
fffb
0001
0013
0009
0003
0007
000a
fff6
fffd
fffa
0007
0004
fffa
000c
000a
fffe
fffc
0010
0015
000b
fffa
000a
fffd
0018
ffff
000b
0014
fff8
ffff
fffb
0001
0008
fffd
000f
0007
0001
0003
0000
0002
000c
0000
0002
0011
0017
000e
fffc
0015
0009
0011
fffd
fff8
0016
ffef
0004
fff1
0010
0007
fff6
0002
0014
fff8
fff8
fff2
fffa
ffee
fffd
000e
ffcd
ffda
fff9
000b
0017
ffe8
fff4
fff3
0009
fff0
fffc
0016
fff2
fff6
fff2
001c
0016
fff6
ffd1
0008
0000
0007
0001
0002
fffe
0000
fffd
000e
0016
0008
0001
0000
0011
0004
0011
fffb
0004
0016
0008
000b
000d
0002
0006
0000
0005
0000
fffc
0011
fff9
000e
0013
000f
0001
0000
ffff
0003
0011
000d
000a
0006
0006
0011
fffd
000e
000c
fff3
fff7
0001
0012
ffff
0004
000a
0002
fffa
0004
0013
0018
0009
fff9
0013
001a
0004
000c
0002
0001
fffb
0008
0003
fff6
000c
fff3
fffb
0007
0006
0005
ffcc
fff7
fff8
0008
0010
ffde
fffa
000e
0011
fff2
ffe9
0011
0006
fff3
fffd
fff1
0004
0012
fff0
fffc
0006
ffff
fff7
000a
fffa
fff5
fff1
fff6
000c
0007
ffd1
fff1
0006
000f
fffc
fffc
0009
001a
ffff
fff4
fff1
fffa
0000
fff8
0005
fff7
000e
0008
000b
000b
0005
0004
0000
0003
000f
0008
0001
0004
0004
000c
0000
fff4
000c
0000
fff5
0009
000b
0011
fffd
fff6
000f
000a
0003
000c
000d
fffc
fffe
fffc
fff1
fffd
000b
000b
000d
fffd
fff1
0006
000d
fffb
0007
000d
fff8
0002
0001
0018
000c
000f
0000
000c
0018
ffe4
0000
0004
0003
0000
ffff
0006
fff4
0003
0005
000a
ffef
0004
0001
fff3
0001
0000
fff7
ffe7
0011
0006
ffed
ffeb
000a
0011
fffd
0008
ffff
ffff
0010
000a
0008
fff3
fff1
0000
0004
fffa
0001
0003
fff4
0003
ffff
0001
0015
fffc
0007
000f
0000
0009
000d
0003
fffe
ffef
fff4
0003
fffe
fff4
000b
fff1
0006
ffeb
000a
ffed
ffee
fff8
000c
000e
0006
fffd
0002
0006
fff2
fffa
ffe2
ffdf
ffe5
fffc
fffa
fffa
0009
0005
fff5
0001
fffa
0007
0005
fff7
fff8
fffc
fffb
0000
fffb
000d
0003
0003
0002
0007
0018
0002
0001
ffe8
0004
0011
0006
0008
fff9
0003
0002
fff6
0002
0004
fffb
fffb
fff9
0007
fffe
fffe
000d
fffb
fffe
fffb
0000
0012
0008
0006
fff3
000b
000e
0002
0000
0000
0018
0006
fff1
0000
000f
fff8
0002
0000
0008
0013
0000
fff0
fff5
fff1
0002
0003
fffc
fff9
fffe
0009
0003
fffa
0003
000c
0002
fff6
fff4
0004
fff1
0000
ffeb
0002
0000
fff9
0006
000a
fffd
0007
0005
ffff
0008
000b
0009
fffd
0001
000b
fff7
fffb
0009
0001
fff7
ffee
0006
0002
0009
fff5
0009
0002
ffe9
0004
0000
0000
fffa
0014
0005
000d
fffa
0004
fff8
ffe4
0000
fff8
ffef
fffe
0008
fffb
000a
0003
ffed
ffef
000a
fff3
fff9
fffd
ffeb
fff7
fff1
ffeb
000d
fffa
ffea
fff7
fff8
fff9
fff7
0007
0009
0002
fffe
fff7
0003
fff6
0000
0018
000b
0008
0010
000d
0009
fff7
0001
000e
0005
0012
0000
0000
0008
000e
0003
fffd
000f
000e
0006
0000
fffb
0006
fffe
0000
000c
fffc
0004
0000
000f
fffd
0009
fff7
0008
0002
0002
0007
000d
fffe
0000
0014
ffff
fffe
0005
0009
0005
000f
0000
0001
0000
fffa
0009
fff6
fff9
fffd
fffd
fffe
0003
0012
0009
0003
0005
0001
fffa
000a
fffe
0005
000d
fff9
0005
fff1
fffb
0001
fffc
fffd
0002
0005
0000
ffff
fffc
000e
000c
fffe
0008
0000
ffe6
0004
ffed
ffec
ffec
ffed
000b
0004
0003
fffc
fffc
000b
0009
fff5
fff8
0002
000a
fffe
0001
ffff
000a
ffee
fff9
fffd
000a
0003
0006
0010
0011
0017
fff7
0012
000f
fff6
0010
fffa
0006
0003
fff9
ffff
0001
fff4
0010
fffa
fff2
000e
000a
0007
0006
fffa
0000
fffa
0011
fffe
0002
fff5
fffd
000e
fff9
fffe
0006
000e
fffa
0006
fff9
fffc
0002
fffe
000d
fff8
ffeb
0002
000d
ffff
ffff
000d
0008
fff8
fffa
0007
000c
fff7
fffc
fff7
0008
fff8
ffff
fffd
ffeb
fff2
ffed
fffe
fff6
0000
fff8
ffee
0004
0006
fffa
fff0
0005
ffff
fff5
0003
fffc
000d
0004
fff3
0002
fff6
fff1
0000
0001
0000
ffef
fff3
ffee
0001
ffed
0001
fffd
fffc
0008
fff6
fffa
0007
0014
000a
0002
fff2
0004
0002
fff3
fffb
fffc
ffed
fff4
fffa
0004
fff5
0001
000e
0009
fffc
fff7
0005
0008
0014
0010
0000
0006
fff7
0009
0010
0000
0002
ffe6
fff8
0005
fff7
fff8
fff5
0000
0000
000b
fff3
ffe8
fffe
0005
0001
0002
0003
000b
fffe
fffb
0000
fffa
0000
fffe
fff4
fff1
0007
0013
000b
0003
0012
000e
000c
ffff
0006
0005
0003
0006
000c
fffb
ffff
fffb
0002
fffc
0009
000a
fffc
0014
000d
0010
0009
000c
0013
0015
001a
0005
000d
0011
0000
000c
fffd
fffc
fffc
000a
fffb
fff2
0000
fff9
fffb
0000
000b
fffd
fffe
000a
0000
0009
0012
fff6
fff8
fff6
ffef
fff6
fff3
fff4
0001
ffec
0000
0004
fff5
ffec
0000
0004
000e
ffff
fff5
000c
0018
0003
0001
0002
fff7
0009
0008
fff7
fff7
fffc
fffc
ffff
fff1
000b
ffe8
fff3
ffff
fff3
fff3
0002
000b
0003
fff6
fffe
000f
0002
fff8
0003
000a
fffb
fffd
ffe7
0001
fff8
0003
0000
fffe
0007
fffd
0007
0006
0015
0002
fffd
0008
000e
0025
0022
fffe
000a
0008
0030
002c
000a
fff9
0004
0006
000c
0011
0005
000d
0000
0010
000f
0003
fff6
fffa
fff9
fffb
000a
fff9
0009
0003
0007
000f
0006
0001
0008
0008
0005
000f
0002
ffff
0005
fffc
fff6
0007
0009
0006
0007
0006
0000
ffff
0003
0003
fff6
fff9
fff1
fff4
0009
fffb
000d
000a
0003
0007
0000
0000
fffc
0009
fff5
0002
0003
0002
0009
0006
0005
fffb
fff5
fffd
fffd
fff8
000b
fffc
0007
0005
fffa
0007
ffee
fffd
0007
0005
0002
fffe
0010
fffb
fff5
000e
0012
000f
0012
000a
0004
fffc
000c
0002
fff8
001a
0008
0005
ffee
fffc
0015
000d
fff0
000c
0000
000d
0011
0000
0002
000b
0009
000a
fff6
ffff
fff8
000b
0003
0006
fff8
fff2
0012
fff9
0002
fff6
0008
0010
0000
0008
fffc
fffc
0000
fff9
000c
fff9
0007
0011
fff3
fffe
0000
fff9
ffe9
0002
0006
fffe
0003
ffe7
0001
0002
0000
fff2
fff1
0000
ffff
0010
fffa
0010
0002
fffe
0009
0006
fffd
0005
fff7
0002
0001
fff3
000f
ffff
ffff
001d
fffd
000e
fff9
fff6
000d
0010
fffc
ffe5
fffe
0012
000e
0012
0008
0005
fff7
0007
fffa
000e
0014
ffed
ffff
0000
0019
0002
fff6
fff6
0019
0017
fffd
fff6
0018
0000
fffa
0003
ffed
0000
0009
fff9
fff7
000c
fffb
0013
0000
0006
ffff
fffd
0008
fffa
0015
fff9
0008
fffb
0007
000d
ffea
fff2
fff7
0010
fffc
fff1
ffff
001d
0010
000b
fff9
fff3
0011
fff0
0007
000b
0005
0023
0000
000d
fff8
0003
ffed
ffee
0009
fffe
fffa
fffb
fff8
0013
0007
0002
0006
0000
fff8
fff2
000e
fff3
0003
fffd
0002
0002
fff7
ffff
ffec
0018
fffe
fffc
0005
fffc
000d
ffee
0010
000e
000d
0001
0006
ffe9
fff8
fff6
0005
001d
fff2
000d
0000
ffff
0000
fff0
fff4
0005
0007
fff6
0009
0008
0007
000d
0002
000c
fffc
0004
0004
ffed
fffe
fff3
0000
0010
000e
0014
000a
0007
0002
fffb
ffe8
0004
0000
fffc
ffe4
0004
fff7
fffe
000e
fff3
000d
0007
0009
0000
0013
ffff
0011
fffc
fffb
0005
fff9
0012
000d
fff7
fff0
0000
001a
fff6
fff1
0001
0012
0018
000a
fff3
fffa
fff0
0005
0004
0006
ffff
0008
000d
fffc
0003
0005
fffd
0015
0003
fffc
fff5
0000
000d
fff5
000e
0007
0015
0015
0001
0006
0002
fffc
fff6
000a
0005
000c
fff8
fffc
fff9
fff8
fff8
fff3
0012
0010
000c
000c
0003
0002
0005
0016
ffdb
ffd8
fff1
0010
0004
ffd5
ffce
fff9
000d
fffd
fffd
fffe
ffff
0004
fffb
000c
fffa
0003
fff7
0006
fff4
0007
ffff
fffe
0010
fffb
fff8
0006
000c
0009
fff4
ffff
0002
0004
fffa
0011
fffb
0000
0010
0001
0010
0008
fffe
0008
0003
000a
fffe
000f
0000
0000
fff1
000e
0018
0006
0003
fff9
000d
0007
000e
fff0
0011
fff8
ffff
fff8
0000
0006
0007
0012
fff4
0000
ffff
fff8
000e
0001
000f
ffff
000a
000c
0000
fff5
fff8
0012
0002
000b
fffe
ffeb
000e
0012
000c
0003
fff8
0003
fffa
0014
fffd
0013
fff8
0000
000e
fff0
fff2
ffea
0004
0004
000b
ffeb
0006
0013
fffa
0002
0005
fff2
fff1
0001
0004
0008
000e
fff3
0004
000b
fffe
fff3
fffd
0015
0002
ffe6
fff2
0004
0006
fffb
fff1
0006
0019
0005
0000
0000
0008
fffe
0003
fff2
fffd
fff8
fff3
fffb
fff9
fff6
0009
0000
0000
0004
fff5
0008
fff6
fffb
ffff
0009
000a
fff9
fff2
0004
fffc
fffc
0002
fff4
0008
0000
fffe
fff4
0003
fffd
fff4
fff8
000a
0001
0005
fffd
0007
0001
fffc
fff8
fff5
0006
0002
fffa
fff9
fff3
fffa
0000
0008
fffd
fff4
fff4
0006
000d
fff5
fff7
fffd
0009
0002
0001
0009
fffb
0003
0000
fff9
0009
fffd
ffff
fffb
fff6
0004
fff3
fff3
0008
fffd
fff3
fff9
0004
fff3
0002
fff5
fff6
0004
fff4
fff9
0006
fffc
fffa
0004
0003
0008
0006
fff3
000a
fff2
fff4
0000
0002
0008
fffd
fff2
fff9
fffa
0007
fff2
fffb
0000
0000
0005
fff7
fff6
0009
fffd
fff2
fffc
0008
fffc
0000
0001
0005
0008
0003
fff8
fff2
fff3
0000
fffc
0004
0000
fffc
0001
0008
0003
000c
fffd
0002
fff6
fff2
fffc
fff4
000b
0002
0001
fff4
fff5
0000
fffa
fff7
0002
fffd
0000
fffe
fffc
0005
0006
fff5
fffd
0000
0000
fffb
0008
ffff
fff6
0005
0000
0009
fffe
ffff
fff7
0000
fffb
fff8
fff6
0003
000a
fffb
fff7
fff1
fff9
fff9
fffa
0001
0001
0004
0000
fffe
000a
fffa
fff9
0000
0003
fff4
fff4
0000
fff8
fff4
0000
fff9
fff4
fff4
fffd
0000
fffe
0001
fff5
0008
ffff
0002
fffa
fffb
0006
0005
0002
0007
0000
fffa
fff5
0009
fff4
fffb
fff6
0008
fffa
0002
fff9
fff3
fffa
0003
fffa
fffe
0007
0007
0005
fff7
ffff
0007
fffa
0006
fff6
fff7
0009
fffb
0003
fff5
fffe
0000
0000
fff7
fffc
fff9
fffe
000b
0006
fff8
0003
fffa
0008
fff7
fffe
0003
0000
0002
0000
000b
ffff
000e
fff9
000a
fff7
fff8
fff6
fff9
0000
0004
0008
0005
fff6
fff5
fff3
fffe
0005
fffe
fff8
fffc
0000
fffc
fffc
fff6
fff9
fff3
fffe
fffa
0004
fff3
fff2
0006
0004
0006
fff7
fff3
0004
fffe
fff8
fff9
fff8
fff2
0009
0009
0000
fffe
0005
0000
0007
0008
0009
fff8
0000
fffc
0003
0003
fff2
0009
0002
fffc
000a
fffd
fff5
0005
fffa
0007
fffd
0001
0007
0008
fffc
fffb
0004
0007
0000
fffc
ffff
fff4
0000
0008
fff9
0007
0002
0005
0006
0004
fff6
fff2
fff7
fff5
ffff
fff9
fff5
000a
fff8
0000
ffff
fff7
fff4
0002
fff8
0007
fff6
fff2
fff4
0006
fff3
fffc
fff7
0000
0003
0005
0009
0009
0004
fff1
ffff
fffa
fffb
0007
0005
fff2
0003
0003
0009
0000
fffb
fff3
fff2
0003
fff7
0006
0006
0012
fffd
0009
fffc
fff5
000f
0007
fff5
fff4
fff9
fff4
000a
000a
0011
fff3
0001
000f
fffe
0009
fffd
0002
000b
fffb
0012
0003
0004
0011
0002
ffff
fffb
0012
0003
0019
fffe
000a
fffc
fffc
0008
fff9
0005
000d
ffff
0009
0000
000e
000f
0005
0001
0010
000f
fff1
ffeb
0000
fff7
fff6
fff7
fff7
fff7
fff6
ffe5
fff3
fff5
ffed
fff9
fff2
fff4
fff1
fffc
0004
ffee
000a
0015
0012
fffc
0010
0008
fff9
fff0
0000
ffef
0004
0000
fff9
ffed
fff4
fffd
0000
fffb
0014
ffec
fffd
0012
0000
000f
ffea
0002
000b
0005
fffb
fff5
fff9
000a
fff8
fffc
0006
0004
fffe
0000
0014
0009
ffef
0009
001b
0017
0004
000f
001d
0019
fff8
0007
fffc
0003
fff4
0013
0012
ffff
fffa
fffd
0009
0008
000e
fff0
0000
fff3
fffc
0012
0007
0009
ffff
fff9
0005
ffff
0002
fffa
000d
fff2
0001
fff9
0020
0018
001f
000e
fffb
0010
0012
0009
0009
000e
fff9
000c
0002
000c
fff9
fff9
0010
fff3
fff5
0001
000c
0006
ffff
0002
fffa
0014
0022
0008
0013
0006
000c
0004
fffe
000b
0014
fffc
0005
0003
0007
0005
0001
000a
0004
0002
0004
fff9
fffc
fffc
fff9
0008
0007
0004
0009
0002
fff7
fff1
ffff
0001
fff8
fff0
ffec
ffee
ffff
0001
0006
0000
ffe9
0007
0000
0016
fffe
fffd
fffa
0005
0003
0005
0008
fff4
0000
0003
fffa
fff3
000c
ffef
fff4
ffec
fff9
000b
fffb
fffd
0007
fff2
0000
000a
0008
000c
0008
0001
fffe
000a
fffa
0000
0006
0002
0003
000a
000e
000d
000e
0000
0018
0013
0004
fff6
000d
001d
0003
ffef
fffb
fffb
0016
001e
fffd
fffd
fffd
000b
0013
0014
fffb
0003
000f
000b
0015
001a
fffc
0005
000f
fffb
0001
0000
fffb
0006
0003
0014
0010
0005
fff6
0002
0000
0000
000d
0000
0000
0000
0004
0007
0000
fffc
0002
0009
fff2
fff0
fffe
0003
0008
0000
0006
fffd
0000
0009
0002
0000
000e
0011
0010
ffff
000b
000d
fff9
000a
0000
000a
000a
fffc
fff9
ffee
fff5
fffe
fff9
0000
fffd
fff8
000a
0000
0001
fff4
0002
0006
fffa
0005
000f
0012
0004
fff5
ffec
0011
0002
0006
fffb
ffee
000b
fffe
0002
fffa
0000
000f
0000
0001
ffec
fff2
000e
0000
0007
0004
0001
000e
001a
0004
000f
fff7
0006
000c
fffa
000c
0007
0003
fffa
fff9
000c
0000
0000
fff1
0001
fff9
0007
0018
0001
0006
ffff
0009
fffa
fff8
0008
0000
fffe
ffea
000a
0000
0000
fff0
0005
000d
000b
000d
000b
0001
fff2
fffe
0010
0007
0000
fff3
fff6
000f
000e
0001
0006
fff7
fffb
0004
fffd
0012
fffd
0014
0025
fffa
0008
ffec
fff7
fffe
0007
0012
0000
0003
fffe
0003
fffc
000d
0004
ffe7
000b
0001
0005
0008
0000
0002
fff7
fffd
0003
0000
ffef
fff1
0003
0000
ffee
fff3
0006
fff6
0003
0002
fff9
000a
fffe
0000
0013
fff8
0005
0002
fffc
fff4
0007
000c
0005
fffa
ffee
000d
0003
fffc
0000
fff2
0009
fff2
fffb
000a
0012
000c
ffff
fff3
000b
0000
0002
0008
fff5
ffee
0005
0000
fffe
fff9
000b
001d
fffa
ffff
0000
0000
0011
0016
0005
0005
0009
ffff
000e
001d
000f
ffea
ffe5
fff6
fff2
ffef
fff7
fff0
0000
0004
0000
fff4
0000
0013
0000
0017
0009
fffa
0009
0002
000b
0004
0000
0003
fff1
000c
fff4
000b
0000
0004
0001
0000
0000
fff1
fff3
0001
fffa
0004
fff6
000b
0019
ffff
fffd
0011
000e
000f
000c
0003
fffc
000b
000c
fffd
fffc
fff3
fffe
fffa
0000
0016
fffa
fff8
fff5
fffa
0013
fffd
0003
000f
0000
fff6
0014
0016
0001
fffb
fff8
0001
0000
0005
0000
0002
0005
fff9
fffd
fff1
fff3
fff5
0009
0008
fff6
fffe
0000
ffff
ffff
000a
000c
fffe
fff1
0002
0016
0009
000b
fff1
fff1
0007
000e
0004
fffd
0007
fffc
fff1
fff9
000d
0006
ffeb
fff1
fff8
fff5
0003
fffe
0009
ffff
0002
fffd
0013
0009
0007
0005
fff1
fff7
0008
fff4
fff0
fffa
fffa
0003
ffe8
0001
0014
000e
0011
fffa
0015
0004
0007
0015
0015
0026
0003
fffe
000b
0028
0037
000c
fff9
fffa
fff9
000d
000b
0004
fffa
fff4
000b
000c
0007
fffa
0004
0009
0008
fff8
fff5
ffff
0004
000c
0009
ffff
fffc
fffe
0003
000e
0003
fffb
0009
0006
fff3
0003
0006
0008
fffe
0008
ffed
0003
0000
000e
fff5
fffe
fff4
fffa
fff6
fff7
0008
fff7
0006
000a
0011
fffb
fff9
0002
fff2
ffed
fffd
fff9
0000
0007
fffa
0005
000d
fffa
000e
000c
0003
fff6
0004
ffff
000a
0008
ffe9
fff6
fff8
fffb
fffe
ffe4
0009
000c
0018
0002
fffe
000b
0010
000d
fff5
ffff
0002
000e
0001
fff7
0005
0003
fffa
fff3
fff3
0010
fffe
0005
0002
fff9
fff6
ffff
000b
000e
fff7
ffe9
0000
000d
0004
fff7
000a
000e
0017
0002
ffea
0020
000b
ffff
0000
0009
0006
0009
0002
0007
000c
ffec
fff1
fff6
000f
0007
ffea
0002
0002
000d
000f
0007
fff6
fff7
000b
0009
fff7
0003
fffa
000e
0008
0011
000e
0011
000c
fff4
fff5
fff4
000f
0013
ffff
fffa
0011
0007
0005
0004
0003
0005
fff8
fff9
fff7
fffb
000f
0008
ffed
ffe1
000a
0006
0013
ffe9
ffc9
fff8
fff8
fff4
000a
ffff
fff2
ffeb
ffff
0013
0007
fff5
0007
fff8
0006
0001
0007
fffb
fff2
ffff
fff8
fffe
000e
000e
fff3
fffc
0000
fff8
0006
000e
0013
fff3
000d
000c
fffe
fffa
fff7
fffe
fffb
000c
0003
000f
fff2
fff8
000b
0001
0009
0007
000a
0014
000e
0004
ffff
fffc
000c
ffff
0003
fff8
fff2
fff1
ffed
fff8
fff6
ffe7
fff6
0000
0010
000a
000e
0002
0004
ffe9
0002
000f
000c
fffd
0003
0006
0006
fff6
0000
fff8
0010
0000
fff9
ffff
ffff
0004
0015
0007
fffc
fffa
fff7
000a
fffb
0001
0011
0005
000d
fff1
ffe0
fff6
0005
0009
fff0
0011
fffd
fffd
fff4
0002
0007
fffa
fffc
0003
0010
fff2
0001
fffe
fff4
ffeb
fff9
000b
fffd
0000
fffc
ffe0
fff3
fff8
ffec
fff0
000d
fff0
0000
ffea
fff8
0001
fff0
0001
0009
ffff
fffe
fff3
ffff
0004
0003
fff6
0004
fff6
ffec
ffed
fff9
fff2
fffa
0011
0002
0002
fff2
fffb
0016
fffb
0008
fff1
fff7
000a
fffc
0001
000d
ffea
0000
0003
0000
0003
ffff
000e
fffe
0006
fffb
0007
000e
0002
000c
fffc
fff8
000a
000e
0006
fff7
fff0
0008
ffff
fff4
fffc
fff1
fff7
fff4
ffe5
0009
000f
000b
fff6
ffdc
0001
fffb
0007
0006
0009
ffe3
fff7
0006
fff1
fff4
0011
fff7
ffff
fffc
fff4
0027
0012
ffe4
fff3
fff8
0008
0007
fffa
fffe
fff6
fffd
0004
fff7
fffd
000b
ffff
fff5
0004
0001
0006
ffec
000a
ffff
000e
0002
fff3
fff7
0007
0005
0005
0003
0009
0000
fff6
fff7
fffd
fff8
fffb
000c
0000
ffff
fffd
0000
0001
000c
ffee
0006
000d
0012
fffb
0008
fffe
0003
000c
ffec
0006
0008
0004
0009
ffeb
0009
0007
fffb
0003
0000
fffb
0009
0000
fff9
0001
fffb
fff3
0018
0006
fff3
fff6
ffeb
0006
fff1
ffe7
0012
0012
0008
fff6
fff2
ffdd
ffed
0001
fffe
0009
ffeb
fff5
fffb
000a
000e
fff8
0003
0003
0002
0005
0005
0003
000a
0004
fff7
fff5
0000
0008
000e
fffe
0002
0009
0007
000a
000d
ffea
fff9
0003
000f
ffff
ffff
fffb
fffb
000b
0003
fff6
fff8
0000
0000
0000
0004
0005
0007
0003
ffef
fffb
0000
0005
000c
fffd
fffc
0011
0001
0008
0002
fffb
0014
0004
ffff
ffff
0005
000f
000d
fff5
000e
0002
fff8
000a
fffa
fffa
fff8
0005
fffd
fff0
ffe6
0002
0009
0011
fffd
0007
000d
fffa
0005
0004
0004
0008
0000
000f
0008
ffd8
0012
fffe
0008
ffff
ffd8
ffff
fffd
000f
0000
fff7
0002
0000
0002
0000
0006
000e
0000
fff2
000b
000c
fffb
fffe
fff9
0001
0015
fff0
fffc
0014
ffe9
ffff
0007
fffe
ffff
000d
0002
fffc
0003
0008
fffb
ffff
0000
0008
0000
0001
0019
000b
0016
fffc
fffa
0003
0006
fffe
0006
fff7
fffc
0000
fff6
fffe
0004
000f
0012
fff6
fff4
000c
fffd
000a
ffef
fffb
fff5
fff2
000c
0012
000c
ffea
0001
0000
ffff
fffa
fff6
fffc
fffc
0000
ffee
000a
fff5
fff1
0002
fff6
fff9
0003
fff8
0002
000a
000c
0012
0009
0014
fff0
0003
0000
fffc
0006
fffd
fffd
ffec
ffec
fffb
fff2
0005
0008
ffe8
fffb
fff0
0001
0000
fff5
fffb
fff4
0008
0010
fffb
0003
000f
fffd
fffd
fffa
fffa
0000
fffb
fffb
fffd
ffef
0001
fff2
000b
ffee
fff8
fff2
0000
ffff
fff8
0000
fff8
0000
0002
fffc
0008
fffd
000f
000b
fffe
000e
0000
0009
ffff
fff6
fffb
000a
fffa
0001
0009
000c
fffe
000a
0015
000c
000f
ffff
0015
0017
0003
0011
fffd
ffff
0002
0004
0009
fff1
fff2
fff0
000d
000e
fffe
0007
0009
fffe
0012
0005
0003
000d
000e
0004
0004
0001
000b
fffd
0008
0005
0005
0007
fff2
fff4
000e
ffff
ffe1
fff5
fffb
fff0
fffc
0004
ffea
ffe9
ffff
0006
000a
ffe4
fff4
0004
fff3
fff4
ffea
000e
0002
ffee
ffe9
0011
001a
fff0
ffe2
0006
fffb
0005
0005
fff9
fff4
fffa
0000
0007
0001
0002
0007
0000
000b
fffc
0013
fff9
fff3
0002
0005
0015
0008
ffff
000c
0006
0003
0006
fff5
0000
ffff
0004
0003
0003
fffd
0009
0008
0001
0007
fffa
0009
0010
fffa
0002
0002
0010
000c
ffff
fff9
000a
0005
0009
fffb
000b
0000
0001
0009
000d
0004
000b
0001
fffc
0007
0011
0005
0002
0008
0003
0003
fff5
ffff
000a
0001
0008
0009
0000
000a
ffdf
0006
fff7
0004
0006
fffa
fffd
000e
fffb
fff9
ffed
0008
fff7
fff4
0006
fffe
0001
0000
fff2
0001
0000
fff7
fff1
0006
ffff
ffef
0005
fffa
0000
0000
ffdd
0004
fffc
fff9
0005
0009
0004
000d
fffb
0008
0004
000f
0001
fff2
0007
fff1
000b
0003
0001
0002
ffef
0002
0008
0000
0005
0003
0010
000e
fffd
fff5
fff9
000c
fff9
0005
ffee
0007
0009
0000
000b
ffff
0009
ffff
fffe
0011
0002
fff3
0004
000e
0012
0029
fffc
fffe
fff5
0002
0018
0002
0002
ffe4
fff1
0014
0010
fffc
0007
000c
fffe
fff9
0008
0011
001d
fffe
0000
000a
000c
fff5
0000
0003
0009
0005
ffe8
fff7
0006
0009
fff4
ffe8
0000
fff4
fff4
fff4
fffd
0000
fffc
0001
fffc
000c
0008
0005
000a
fff6
ffee
fff6
0003
fffa
fff4
fff1
fff8
fffa
0009
fffe
fffe
ffef
0006
0002
000d
000a
0003
ffff
0000
0019
0006
0008
fffe
0004
0004
fffb
ffef
0001
0000
000b
ffff
0009
000a
0000
0009
000f
001e
000e
000c
0017
0005
fffe
0009
ffe9
fffd
ffed
ffdd
fffa
0009
fffe
0003
0009
0003
001a
fff8
fff9
000f
0000
0004
000c
fffc
0007
0003
0000
0000
fff9
fffa
000c
0006
000c
fffe
0000
fffa
fff5
0007
fff9
0012
fff8
0002
0005
0001
000e
0008
0009
0000
0001
000b
fffb
fff6
fff5
0003
fffb
0004
0007
0013
0010
fff2
ffea
ffeb
0004
0001
0023
ffea
0009
0011
000c
0012
0003
000a
000a
0000
0000
0006
000a
fff8
0001
ffef
fff8
000d
0006
0007
fff3
fff6
0014
0004
ffeb
fff9
000e
0013
fff9
ffe5
fff2
fff2
0000
fffe
ffff
0008
fff4
fffe
0010
0000
0012
000b
0008
0000
0010
fffc
fff6
fffc
000d
0005
fffe
000f
0014
0008
ffef
ffee
0007
0002
0000
fffc
0000
fffd
fff8
0004
ffff
0002
0005
000b
000f
fff7
fff5
fffc
0007
fff4
fff9
fff8
ffdc
0000
0019
0002
fff0
fffb
000d
0005
ffff
0000
000f
0000
0011
0019
fffa
fffe
fff8
0020
000d
fffc
fff6
fff0
0009
0003
0013
fff9
fffe
fff9
fffc
0006
000c
0000
0004
fffe
fff9
ffff
000d
0000
000c
0005
000d
fff4
0002
000f
fff7
fff5
0008
000c
fffe
fffc
fffe
000f
0009
fff1
fffa
000a
000e
000d
fff2
0000
fff9
fffb
0000
fffe
fff1
0008
fffa
0007
0002
0006
0003
0011
fff0
fff3
fffc
0005
0014
fff9
fffe
fff8
0001
0000
fff9
fff4
fff2
000d
000d
fff9
fff5
0003
ffff
fffa
000a
0003
fffd
ffcd
0002
001d
0004
fff5
ffd8
fff7
0008
0012
fffc
0000
fff5
0012
0003
0009
fff9
0008
0005
ffea
fff1
0011
fff1
fff3
fff2
ffef
ffee
fff9
000d
fffe
0014
ffe7
0010
000c
fffa
fffe
ffff
0010
0000
fff1
fff8
0011
0003
fffa
ffef
fff4
fffc
fffc
0000
0003
fffd
0000
0000
fff8
0004
ffff
0003
fff7
fffc
fff2
fff4
fff5
fffd
fff4
fff4
0004
0000
fffd
fff9
fff6
0001
0007
0006
0000
fffb
0004
fff0
0002
0000
fff4
fff6
0002
ffef
fff4
0000
0002
fff4
fff1
0000
0007
0000
0005
fff3
fff9
0000
fff9
fffc
fff7
fffb
0001
0007
0005
0001
fffe
fffa
000c
fff9
fff6
fffa
fff0
0000
fff9
ffff
fff3
fff8
0002
0003
fffb
fff6
fffa
fff3
0005
fff7
0008
fff6
0000
fff7
0006
fffb
0000
0002
fff4
fff4
0000
0003
fff2
0009
0009
fff4
fff7
fff5
0004
fffd
0002
ffff
0009
0001
fff4
fffb
0002
0007
fff9
fffe
ffff
ffef
fffc
fff8
fffc
fffa
fff1
fffe
0008
fffa
fff8
fffd
fffd
fff2
fffc
0000
fffc
fff4
ffed
0006
fffd
ffff
fff9
ffff
fff5
000b
fff5
fff3
0005
000a
0005
fffc
0003
fff0
fffb
ffef
fff3
0004
fff2
0007
000d
0008
fff5
ffff
fff2
0001
fffe
fffc
fffd
0004
0005
0005
0000
0000
0006
0006
0000
fff8
fff1
fff9
0000
0003
0009
0002
0006
fffd
fff9
ffff
fff9
fff3
fff1
fff7
0000
0000
ffff
fffc
fff7
0000
fffc
0008
fff6
fff4
ffff
fff1
fffd
fff7
fff9
fffc
0007
fff7
fff0
fff9
fffe
fffd
fffa
ffee
fff4
fffe
fffe
fff1
fff9
fff2
fffd
0005
fffd
ffff
fff9
fffe
fffa
0004
0003
0000
0003
fff8
fff8
fff8
fff7
fffa
000b
fffe
fffb
0002
fffa
fff8
fffd
fff5
fff8
fff4
0003
fff3
ffef
0003
fffe
fffe
fffd
0000
ffff
fff7
fffd
0006
fffb
0000
fff7
0007
fff9
fff1
ffff
fff9
fff9
0002
fff6
000a
0002
fff8
fffd
fff1
fff6
fff9
0000
fff8
000e
0004
fffa
fff6
0006
0000
000f
0009
0000
fffa
fff6
fff6
ffff
fffb
fff9
fffc
0000
fffa
fff2
ffef
0003
fff4
fff2
0001
0001
fff6
fffb
ffef
fff7
ffee
0000
fffb
fff9
fff2
fffa
0003
ffff
fffa
0000
fffe
0000
fff8
fff7
0001
ffee
fff7
fffd
fff2
fff8
fff5
fff7
0000
0001
fffb
fff3
fff1
0006
fff9
fff2
0005
0000
fffe
fffc
fffa
0004
0004
ffef
0008
fff2
fffe
fffe
ffff
ffff
fff1
0004
0001
0003
fff2
0003
fffb
fff8
0005
fffe
0003
0000
fff3
ffef
ffef
0003
ffee
ffee
fffa
0007
0003
0005
fff3
0000
0000
0006
fff3
fff2
fff0
0006
fff5
fff5
fffc
0000
fff3
fff3
fffd
fff3
ffff
0003
000b
0008
fffd
0006
fffa
fff4
fffa
fffa
0006
fffd
fff6
0003
fff9
ffff
0005
ffee
fffa
fff7
fffc
fffa
0003
fff5
fffc
fff9
0005
0007
0000
fffb
fffc
000a
0008
fff3
fffd
000a
0009
fffc
fff5
fff9
0000
0002
fff2
000a
fffc
ffff
0004
0007
fffe
fff7
0006
0003
0002
0000
fff9
0008
fff3
0009
ffff
fffd
fffd
0009
fff3
fff8
0009
0000
0005
0005
fff4
fff9
fffe
fffd
000a
0002
fff8
fff5
fff9
fffe
fffe
0008
fffe
0005
0008
0009
fff9
fffd
0003
fff6
fffd
0008
fffc
fff9
0004
000a
0009
fff8
fffa
fff8
fff6
fff5
fffc
fff7
0002
fff4
fff9
fffa
fff8
ffff
fffa
0000
fff3
0006
fffe
fffe
fff4
fff3
fff6
fff8
fff2
fffd
fffa
fff4
fff9
fff7
fff6
0007
fffe
ffff
0000
fff7
fff9
0008
ffff
fff7
0008
fff6
fffa
fffc
0006
0008
fffa
fffc
ffff
0000
fff6
fff5
0007
0008
fff3
0009
fffe
fffa
fffd
0001
fffd
0005
fffe
000a
fff8
0004
fffb
fffa
0001
000c
fff9
fff9
ffff
fffa
000a
fff3
0004
fff4
0003
0000
fff5
fffd
0007
ffff
0008
0004
fffc
fff3
fff8
000a
fff5
0009
0000
0000
0006
fff7
0001
fff6
000a
fffd
fffc
fffe
fff7
0003
fff5
0004
0007
0000
fff6
fff7
fff9
0000
0008
fff7
fff3
0004
0008
0004
fffb
000a
fff3
0001
fff9
fff3
ffff
0009
fff5
0000
fff5
0006
0007
000b
fffc
fffb
0000
0002
0000
fffd
0002
fff5
0000
fffb
fffc
fff8
fffb
0008
fffa
fffe
0008
000a
0007
ffff
0000
fff8
0007
fff6
0007
fffe
0000
fffc
fff8
fff9
fffb
fffa
fff9
fff7
0000
fff6
0007
0006
fffe
0005
ffff
fffb
0006
fffa
0002
0007
fff2
000a
fff8
fffc
fffd
fff3
fff7
fff5
fffe
fffb
0006
0000
fff6
fff9
ffff
0003
ffff
fff7
0009
0005
fff7
0003
fff6
fff5
0008
0001
0001
fff9
000c
0001
fffa
0000
0005
fffd
fff7
0005
0000
0003
ffff
fff8
0004
ffff
0000
0009
0005
fffe
fff9
fff5
fff2
fff5
0009
fffd
0008
fff5
fffd
fffa
fff7
fff6
0009
fff6
fff3
fff6
fffd
fff4
fff6
fff9
0001
0003
fff6
0001
0000
0006
000a
fffb
ffff
ffff
fffb
fff3
fffe
fffc
fff4
fffd
fffb
fff8
fff8
0001
0000
0009
0007
fff7
ffff
fff7
0000
0009
0009
0009
fff9
fff6
0008
fff9
0006
fff2
fff7
0008
fffa
0001
0005
fffe
0007
000a
ffff
ffff
0003
fff6
ffff
0001
ffff
fff8
fff6
0001
0007
0002
0000
0006
000c
0007
fff8
0004
0008
fffb
0005
fffa
0009
fff7
000a
fff9
fff6
fffc
fffd
0002
fffe
fff4
fffc
fffd
fffe
0007
ffff
fffe
0000
fff6
fff5
fffa
fff9
000a
0006
000c
000e
fffa
fff3
fffb
0011
fffd
fffb
0009
0000
0001
fffc
000f
0006
000a
ffef
000b
0009
0009
fffe
fff8
fff8
0000
fffb
000f
0003
fff7
0008
0001
fff5
000f
fffa
fffd
fffa
ffee
fffd
0004
000a
000f
fff3
fff8
ffef
fff7
fff7
ffe9
0002
000b
0003
fff9
0004
fffc
fff3
fff9
0003
0018
fff8
000a
fffb
000b
0001
0016
000f
0005
0008
0002
000e
ffee
0000
fff0
fff7
fff9
fff7
0000
fff4
fff3
0002
0000
fffd
0003
000b
ffff
000a
0006
0005
000d
0003
0005
0000
0004
0014
fff3
fffc
fff5
0000
0000
fffd
ffff
ffee
0004
fffa
000a
000d
0018
0007
0000
0016
fff9
000f
fff4
fff0
fffc
fffd
0001
fffc
0004
fff2
0010
0001
fff8
fff6
0001
0014
0016
000f
000a
0008
0011
fff3
0016
0017
fffb
0003
0004
fff9
fff4
0009
0004
0001
0010
fff3
000a
0006
0000
0011
fff4
fff5
fff7
0008
0009
fffc
000d
0005
fffb
fff7
fff4
000c
fffe
fff7
fffc
0004
0002
000a
0006
0009
0002
fff9
fff1
0004
0007
000b
fff4
fff7
0000
ffed
fffc
ffff
fff8
fffb
fffa
fffb
0000
0005
0000
0000
0003
0014
000c
fff1
fff7
fff9
000d
fffb
000f
000b
fffb
ffef
ffe9
fff1
0000
fff8
000e
0008
ffff
0011
0007
0005
000e
fff3
0011
fffa
0007
fffd
0008
0000
0001
fff2
fffc
0007
000b
ffff
fffd
fffe
000a
fffc
fff9
000b
000f
0000
000d
0006
0011
0004
fff3
000c
ffff
0014
fffc
0007
0014
fff5
fff6
ffef
000c
0005
0000
fff5
0004
0000
000c
0000
ffff
000c
fff8
0004
fff7
0012
000f
ffff
ffee
ffe3
0006
fff3
0011
fffe
0003
fff7
fff1
fffc
ffdf
fff7
0000
ffdd
ffe6
0009
0004
fff8
fff0
0001
fff6
fffc
0006
0001
fff7
ffff
0008
0014
0004
fffd
0004
0009
fff7
0008
ffff
0000
fff4
fffa
fff9
0008
fff8
000c
fff8
fff9
fff3
0005
0008
0000
ffff
fffc
000e
0012
fffe
fffc
fff7
000b
000c
0005
0000
fff8
0000
fff3
0006
0002
fffa
fffe
fffc
0012
0000
fffc
000c
000d
0000
0002
0006
0012
fff6
fffd
0000
fffc
0014
fffe
fff8
0004
fff9
fffd
fffb
ffff
fff3
0000
fff9
fffc
0004
0001
fff8
fffc
000b
0011
fffe
fff3
fff8
001d
000c
0011
fffe
fffc
000e
0014
0000
fff0
0017
000a
fffa
fffb
0001
0012
fff2
fffc
fffa
fff9
fffc
0010
0013
0008
0011
fffb
0000
000d
000c
0002
fff6
000c
fffc
0005
fff7
fffa
0005
ffe4
fff5
ffef
0001
fff8
fff9
fffe
0003
0008
fffd
fffe
0001
fff4
fff4
fff5
0005
0002
fff4
ffff
fff2
0007
0006
ffff
fffc
ffff
0000
0002
fffc
fffb
0003
fff3
0003
fff7
0000
fff9
000a
0002
0000
fffb
0006
0001
fffc
0002
fffc
fffe
0004
0000
fff2
0002
fff8
fffa
0005
fff9
0004
fff6
fffd
0000
fff3
0000
ffff
fffb
ffff
0001
0000
0009
0009
fffd
ffff
fff4
ffff
fff6
fff5
ffff
fffc
0002
fff4
0004
ffff
000a
fff5
0000
000a
fff2
fff9
fff4
fffc
fff8
0003
fffe
fff3
fff6
0003
fffa
000a
fff6
0002
0006
0007
0000
0000
0005
0000
0009
fffa
fff5
fff4
0001
0002
0005
0002
0000
ffff
0004
fff4
0001
fffd
0003
0009
0005
fffa
fff5
0006
0000
0006
0008
fff1
0001
fff2
fffa
fff4
0003
fffe
fffa
0000
0000
fff8
0003
0003
fffb
fff5
0000
0000
0006
fff5
0001
0003
ffff
fff9
0007
0001
fffb
000a
fffc
0000
0004
fffe
fff6
fffd
0009
0006
fffe
fffe
0008
0001
0006
0008
fff5
fff4
fffe
fff2
0000
0007
0000
0005
fffd
000a
fff5
fff7
fffb
0008
fffb
fff1
fff4
0000
0008
fff7
0006
0008
fff9
0005
fff8
fffc
fff3
fffa
0009
fffd
0003
0001
fff5
0002
fff7
fffb
000a
000a
0000
0009
ffff
000a
fffa
fff3
0006
fff3
0007
fff4
fffd
fff1
fff4
0004
0001
fffd
fff9
0004
fff6
fff5
fff4
fffa
fffd
0008
fffd
fff7
fff3
fff9
fff4
fffd
fffd
0002
fff6
fffc
ffff
fff5
fff1
fff7
fff7
fff9
fff9
0007
fff8
fffd
0006
fff6
fff3
0004
fff8
fffd
0008
fffd
0003
0007
0008
0004
0002
fffb
fff6
fff3
fff8
0000
0001
0002
fffc
0008
fff8
000a
ffff
fff4
ffff
000b
fff8
fffa
0004
fffc
0004
0005
fff6
fffc
0002
ffff
fffe
0006
fff4
fff6
fffe
0001
0003
0000
fff9
fffa
0008
fffe
fff1
0003
0001
0009
fffe
ffff
fff7
fffd
fff9
fff5
0002
fff7
fff9
0009
0009
0008
fff6
fffa
fff3
fff8
0009
ffff
fff7
fff6
fffa
0003
fff5
0003
0006
fffb
fff4
fffd
0005
fffc
fff2
0000
0001
000b
fff6
0000
fffd
0004
0000
fff7
fff9
0007
0009
fffa
fff9
fff3
0004
fffb
000a
0006
fffc
0000
fff5
0005
fff4
0003
fffe
fff6
ffff
0007
0007
0008
0007
0000
fff8
0009
fffe
fff1
0004
fffe
fff3
fff4
0002
0009
0000
fffb
fff6
fff9
fffb
ffff
0004
fffa
0009
fff9
0002
fff7
0007
fff9
fffb
000a
0009
0006
fff4
fff9
fffb
0000
0005
fffa
0002
fffe
0008
0009
fffc
0004
0013
0012
0001
0010
000d
000d
0000
0008
fff9
fff7
fff8
0007
fff9
fff1
ffff
fff7
0001
0002
0004
fff7
000c
000e
0005
0001
0007
fffc
000f
001d
001f
0008
0001
ffef
0009
000e
0006
ffec
fff1
0002
fffe
000a
0002
0002
fff8
ffee
0002
0000
001c
001c
fffa
0002
0011
fff8
ffee
fffb
0002
0001
fffc
fff4
0001
0005
fffc
fff0
fff0
fff7
0000
fff7
fff7
fff5
fff4
0001
0005
0004
000d
0004
000c
0000
ffff
0004
0001
ffff
fffb
fff5
ffec
ffff
fff3
fffa
fffe
fffc
fffa
0010
fffe
0008
ffff
ffff
000b
0000
0008
0010
fffe
0008
000a
fffa
0014
0000
ffef
fffa
fffd
0003
fff9
fff9
0011
0001
0010
001d
0015
000c
0001
000a
000e
0003
fffe
fffa
ffff
ffe7
0012
0011
fffa
0006
0011
0011
0010
fff9
000f
0008
0010
0010
fff8
0000
0012
0007
0005
fffb
fffb
fffc
fffb
0014
0005
fff3
ffed
ffef
0006
0011
0008
0016
0006
000f
0011
000b
0011
0017
000e
0000
fff9
000c
000c
fffa
fff6
fffc
fffd
0002
0003
0004
fff3
ffed
ffe8
fff0
ffff
ffff
0015
fffd
000e
0018
0005
001f
001a
0011
000f
ffff
0014
0006
0006
fffd
0003
fff7
0007
fff3
fff5
fff1
fff3
0003
0011
fffe
0002
0002
0016
0015
fffb
fff3
fffe
0000
fff6
fff9
0001
fffd
0000
000e
0005
0000
0000
fff7
0002
000d
000c
000a
fffe
0010
000c
fff5
fffd
0011
0013
fff8
fffa
0005
fffe
ffff
ffea
fff7
0008
0005
fff5
fffb
fff8
0005
fffe
0015
000d
0012
fffd
000b
000e
0012
fffe
000d
ffdb
fff1
fff9
fff2
fffd
0016
0011
0006
0006
0001
000b
0001
0010
000d
0006
fff9
fff5
000e
000b
0010
0008
000e
0002
0004
0009
000c
fffe
0001
000b
0017
000d
0010
000b
0007
0001
0007
fff6
fffb
0000
0002
0008
0001
0004
fffc
fffa
000c
000b
fffe
fffb
fffb
0019
0011
0011
fffc
ffff
0012
0003
0000
0003
0003
fff3
ffff
ffff
fffb
fff2
0008
0005
000f
0009
fff8
0003
0008
fff7
0003
000d
0012
000c
fffe
0001
0007
000b
fffd
0008
0009
fff8
0003
000f
fff0
fff8
fff2
0001
fff9
0000
000d
fffc
ffd9
0010
001c
fff9
fffc
ffed
0007
0011
0002
fffb
0007
0003
0011
0009
000c
0002
ffff
0005
fffe
fffc
0010
ffe7
fffb
fff9
fff5
000a
0010
0011
0012
0011
fffe
001a
000f
fff7
fff7
000e
0010
fffe
fff3
fff2
0004
fffe
fff5
fffd
0005
ffec
000e
000c
0005
0000
0016
000a
0004
fff0
0014
0013
0015
0001
0000
0015
fffe
fffa
ffff
0001
fffe
0003
0000
0004
fffe
000e
0006
000a
0006
fffd
fffe
000e
0002
0000
ffff
0004
0000
fffe
0009
0018
0010
fffc
0001
fffd
0015
0021
0001
0002
0004
fff9
ffed
0010
0011
0005
0002
ffe6
ffff
0006
fff6
fff9
0010
000b
fff8
0004
0001
0005
000f
000b
0007
fffe
0015
0000
0003
0001
0006
000c
ffee
ffec
0009
0009
ffe7
000d
0007
fff4
0009
0015
000e
0012
0014
fff9
0000
0007
0007
0008
fff7
fff9
0006
ffff
0011
0004
fffd
fff4
0006
0009
000b
0001
000b
0002
0006
0000
0005
0010
ffff
fff7
0001
fff4
000f
000e
0003
fff1
fff8
0000
0002
ffef
0005
fffe
0005
0004
fff5
fffb
0011
001d
0003
fff8
0004
fffc
0000
0010
0008
0004
0000
0003
fffa
0004
0001
0014
000f
0008
0000
0003
fffc
fffd
000d
fff8
ffef
ffe6
0018
000c
0000
fffd
0001
0007
0011
fff8
000c
0000
fffe
fffc
0000
0000
001c
0006
fffe
fff6
0000
0010
fff2
fff9
0006
0009
fffe
0011
000a
fff2
ffe5
0000
000f
0000
fff8
ffed
0012
000b
0000
fff8
0000
0007
fffd
0006
0000
0002
000e
ffff
0008
fffc
000d
fffd
0009
0014
fff4
0008
0008
0016
0001
0000
0006
0009
0007
fffa
0001
0009
ffff
fff7
0006
fff3
0009
fffc
0000
0005
0005
fff5
fff8
0017
fffa
0000
0003
0012
0015
000d
0009
fffe
0017
0000
fffb
0008
fffd
0010
fff2
0000
fffb
0012
0000
0001
0002
fffd
fff7
ffda
0003
000b
fffc
0009
0010
fffe
000a
0007
ffef
fffc
001a
fffc
ffef
0006
ffea
ffe4
fffe
ffef
ffe8
fff6
ffe0
ffd4
ffea
fff5
fff4
0012
fff4
fffc
ffef
0010
000e
0000
0000
000c
0012
0010
0002
fffe
0000
000b
0002
fff9
fffe
000e
0009
fff3
0003
0014
000f
0002
0016
0008
0011
fffb
000c
0014
fffd
fff9
fffa
000c
000a
0014
0005
fffa
000a
0003
000b
0000
0004
0001
0008
fff6
000f
000a
fffb
000d
0006
0000
0004
0010
0013
0009
fff6
fffd
001b
fffe
0012
0006
0004
0012
fff8
000d
0002
0000
fff9
000a
fffc
0003
000e
fff1
000b
0023
000f
0006
0010
0003
fff7
fff6
fff3
0014
fffe
fff8
0006
0008
0010
fff2
0000
0001
fffd
000c
fff2
fffe
fffa
0019
0010
0018
0000
fff0
fff7
0008
0011
0000
000b
0009
0018
0002
ffff
fff8
000f
0013
ffea
fff1
ffff
0005
0014
fff1
000c
fffc
fffa
000c
0019
0014
000a
000e
ffff
0008
fff5
0000
ffff
0001
000f
fffb
fff6
fffa
0008
0014
fffa
fff7
000a
fffa
0005
0004
0000
0011
0000
000a
0003
0015
000d
0017
fffa
000b
0006
000f
fff0
fff9
fffc
0003
0001
ffe9
0008
0007
0005
ffed
ffea
0001
0011
0009
0002
fff0
fff8
0003
ffed
fff3
0000
0000
ffed
ffff
0005
000c
fff6
fff1
fff2
fff8
fff2
0006
ffeb
ffed
0007
0007
fffa
0004
fffe
0017
ffff
fffa
0008
000c
0006
0003
fff8
0005
ffff
fff5
fffa
ffec
fffa
0006
0001
fffa
0001
fff8
0005
000f
000b
0014
fff7
0001
0017
fffd
0000
0007
0006
0015
0003
fffd
ffef
0007
fff6
fff4
fffa
0006
0005
000b
0019
000a
000d
0010
000d
0016
0003
0015
0009
000b
0002
0001
0008
000c
0016
0010
000b
0008
0010
0006
fffe
fffc
fffb
0014
0008
fff9
0004
0000
0009
ffff
fffc
0009
fffd
0008
0000
fff4
0019
0016
0017
000b
0008
0012
0019
000b
0019
000e
000d
fffb
0012
0006
0000
0000
fff5
fff5
ffeb
ffe9
0006
0006
fff1
ffeb
ffea
0014
001b
0012
fff5
fff3
000e
0015
0006
0008
0010
0019
ffff
0015
000b
000f
fffd
0006
000c
fff7
ffe8
fff4
fffe
ffff
fff1
fff8
0014
fffb
fffb
0015
000f
ffff
0004
0000
0008
0000
fff9
fffc
fff6
0005
fffb
0009
ffe5
0001
fff9
0009
0015
ffff
0010
0005
0006
0005
fffa
0009
0000
0004
fffd
fffb
fff8
000e
0003
fffe
ffea
0003
fff7
0001
fff4
ffe9
fff5
000b
fff9
0003
0008
0009
0007
0014
000b
001f
0010
000d
0008
000e
fffa
fff6
fff6
fff0
0026
000a
0002
fff2
0006
0029
000b
fffe
fffb
001b
0010
0003
0008
0010
000a
000d
0011
0004
0001
0007
0009
0004
000b
0019
0012
0006
ffff
0008
0004
0004
0004
000c
0003
0000
fff0
fffc
0000
0003
0002
0008
000f
0002
fff7
000d
000b
0006
0006
0009
0011
0014
fff7
ffff
0010
0011
0006
0000
0003
fff3
fffa
0000
0000
fff6
0006
0000
ffff
0008
000e
0010
0000
0018
0000
000c
0009
000c
0001
fff6
fff1
000c
0000
ffff
000b
fffb
0003
fff7
ffef
000e
000a
0011
0007
fffd
001d
fffc
0006
ffe9
0005
0016
0002
0008
0001
0003
0006
0000
0000
0010
000a
001c
0011
fff2
fffe
fffe
0006
fffa
fff9
0008
fff5
001c
001f
0013
000b
0010
0005
0006
fffd
fffe
0007
000c
0004
ffef
0000
0000
0010
fff7
fffc
fff9
0006
001a
fff8
0006
fffe
fff8
fffd
0001
0000
000b
fffd
fff5
ffed
fffd
0002
0002
ffef
fffa
ffeb
fffa
0002
0006
fff7
fff7
fff6
fff6
001a
000a
000b
0009
0007
fff7
fff9
000b
0015
000c
0009
0000
fff2
ffed
ffe7
fff3
fff9
0008
fff0
ffff
0000
000a
0011
0005
fff7
fff7
000d
fffe
fff2
0000
0004
fffa
000e
ffff
0006
fff9
fffb
0000
ffee
0008
0001
fffc
fffe
0004
0000
fffa
fff2
fffe
0006
fffd
fffa
fffa
0015
fffb
ffed
fff7
0010
000b
0001
fffa
fffb
fff9
0008
0004
0001
fff4
ffe2
fff2
0004
0001
000c
0000
0004
0000
0009
000c
0009
0000
0000
0000
fffe
0011
fffd
0008
fffe
000a
000d
fff9
fff8
fffe
000a
0006
0009
0013
0019
0005
0000
0003
fff8
fffb
0001
fffd
ffe8
fff6
0000
0006
0010
000f
0000
fffa
fff8
fff5
0002
fffc
fffa
ffed
ffe9
fffa
0000
fffd
fff6
fffc
fff6
0003
fff5
0009
000c
fffa
fffd
fff9
0014
0019
000b
ffff
0003
0011
0013
000c
0003
000c
0008
fffc
ffe9
fffe
0000
0000
fff2
fffb
fffd
0011
0006
0003
000c
0001
fff8
001f
001e
000c
0007
0003
0013
001c
001a
000d
0002
0006
fffa
0006
0007
ffff
0000
fff2
fffb
fff9
fffa
fffa
fff5
0006
fff6
0004
fffd
fff8
000e
0000
0006
ffe5
fffa
fff6
fffb
fffe
fff5
fff9
fffd
fff4
fff7
0000
fff7
0006
fff4
fff5
0002
0014
0009
fffe
0002
0008
fffb
fffd
000c
0003
fff2
0003
fff6
0009
0005
ffe5
fffc
fff3
000a
0000
0004
fffa
000e
ffff
0000
0006
000a
0000
0009
ffed
fffa
fffc
fffd
000e
fff8
000b
000b
ffe7
ffec
fffc
0023
fffa
0000
0001
fffe
000e
0006
000a
000e
0008
0002
000c
fffb
fff5
fff6
001a
0005
fffd
000a
0008
fff7
0003
fffe
fffe
fff5
000a
fffc
fff7
fffe
000f
0000
fff5
fffc
fffb
fffd
ffff
0001
0000
0005
fff4
0005
0006
0006
fff8
0001
0008
fffe
0007
000a
0009
ffee
fff2
fff7
0006
000c
ffff
fff7
0002
0001
0000
0003
ffff
000b
fffa
0009
fffd
0015
ffff
0009
0011
fff1
fff3
0002
0004
fffe
ffe5
0002
0000
0009
fffb
000a
0003
fffa
0006
0003
000d
0001
000a
000b
fffc
0022
0000
0002
0005
0000
0018
fffe
0000
fff6
0003
0001
0005
000d
fff4
fffa
000b
fff5
fff3
fffc
fff9
0005
fff7
fff2
0000
000e
0019
000c
000e
000b
000c
0013
0008
0001
fff9
fff6
0005
ffe6
ffe7
0005
0000
0002
0000
0006
fffd
fffc
0009
000e
fffe
000b
0000
0017
000b
0005
fffa
000b
0008
0002
0007
fffc
0006
fffb
0009
0010
fff0
0003
ffff
0002
0013
0006
0001
0006
0014
000c
0002
fff9
0000
fffe
0002
0004
fff2
0007
fff7
ffef
0006
001a
0002
fff4
0006
0018
001b
000e
0000
000d
001b
0006
0002
0004
fff2
fff2
fff4
000d
0003
0011
0003
0009
0002
000e
0003
fff5
0004
fffa
0000
fff5
000e
001a
fff5
fff8
0018
0003
fff9
fff9
ffff
001d
0007
fff2
001b
fff8
fffc
0001
fff8
000c
0003
0009
fffb
000f
fff5
fff5
0009
ffff
0010
fffb
0011
0007
fff7
0000
ffec
001e
0002
ffed
fff4
0011
0005
0016
000e
fffd
0004
fff3
ffef
000a
0001
0012
000c
000b
fffb
fff7
0005
ffe7
0000
0003
fff5
fff3
ffe2
ffe1
fff0
0015
0004
fffa
fffe
0003
0000
fff2
fffa
0008
0005
0009
fff3
0000
fffa
0000
000c
0006
001a
fff3
fff2
fffc
0009
000a
fff8
fffb
0000
fff9
fff1
fffa
fffd
0002
000d
0005
fff9
fffb
ffff
fff9
fffa
ffdf
fffa
001b
fffd
ffee
fff5
000b
0004
ffee
0006
0015
0009
0001
0004
0000
000c
0008
ffee
0006
000c
0003
000a
0004
fff8
fffc
ffe9
0000
000f
fffd
ffe4
ffe6
0000
001c
0006
000f
0001
0003
000f
000e
0014
0005
000a
0004
0012
ffff
fffb
0005
0006
fffe
0007
ffff
fffc
0008
0005
001d
0005
0003
fffe
fffc
0012
0010
ffee
ffe3
0015
000b
000a
fffa
fff8
000e
0014
fff4
fffc
0017
fffa
0011
fff6
0012
0018
fff5
0015
fffe
0001
fff5
fffc
0002
0002
ffff
ffdf
0011
0008
fff9
0001
fffe
fff3
ffff
fffb
0007
ffff
fff1
fff6
fff5
fffe
fff5
ffc1
ffd2
fff7
ffea
fff3
ffc1
ffd5
fffd
ffeb
fff2
0001
0002
0004
0006
fff6
000f
000a
fff8
fffd
0004
fffd
000b
0002
0006
0007
fffc
0000
0005
0010
0012
000d
0005
0003
000a
0003
000d
0004
0008
0000
0004
0004
fffd
fff8
fffa
0002
0009
000f
fff8
0005
000d
0006
0007
000b
0008
001a
fff3
0001
000d
fffa
fff5
0009
000b
0003
ffff
0003
ffff
0006
fffb
fffb
0010
0001
0010
ffec
fff2
000d
0004
0007
fff2
0000
0014
0003
0001
fffd
000b
ffff
0014
001b
0010
0013
0012
0010
ffee
fffb
ffee
0004
0005
fffc
0010
fff1
0006
ffe4
ffef
0000
0001
001e
fffa
fff5
fffa
001a
0005
0004
fffd
fff4
0008
fff6
0013
fffc
0013
000c
000c
fff3
0003
fffe
fff7
0015
ffdb
fff9
0013
0007
0009
ffe2
000a
000c
000d
000a
000d
0002
000e
000e
0013
0004
fffd
0005
000b
0016
0000
0000
fffe
ffff
000f
0000
000a
0005
fffc
0010
0009
0009
fffa
0001
0009
0013
000e
fff9
fff8
ffeb
ffff
fff3
0001
000e
0000
fffe
0010
0011
0010
fffe
fffa
fff8
fffd
0008
fff2
ffff
fff7
0006
fff3
0003
fff9
0001
fff8
fff2
0008
fff2
fffc
fff9
fff2
0014
fffa
fff6
0001
fff5
0018
000e
fffc
0004
000a
0002
fff5
0005
0006
ffff
0007
fffb
fff8
000b
0004
0002
ffef
ffeb
fff2
ffff
0006
ffff
fffc
fff6
fffa
0019
fffb
000b
0005
ffeb
fffc
0002
0006
0004
fffc
fffb
0012
fffa
ffef
0000
0010
fffc
fff7
0003
ffff
fffc
fffc
0000
000a
000c
fffe
0005
fff6
0009
fffa
ffff
0013
0009
fffe
0012
ffff
fff6
000a
0001
001e
fffc
fffc
fff1
000e
0017
0014
fffc
fff7
0000
fffd
ffff
fff9
000d
0005
fffd
fff9
0001
fff8
ffeb
ffff
fff5
0006
001e
000a
000d
0003
0001
0017
0008
0011
fffd
0005
000b
fffb
fffc
fffe
0008
0004
0003
ffff
000f
000b
fffc
fffb
0003
fffa
001a
0013
0015
fffe
fff4
000e
000f
0002
0003
0003
fffc
0007
fffc
fffd
0013
000f
0006
0001
fffe
000c
0005
fff2
fff7
0001
0006
0004
fff6
fff5
0009
0009
fff9
fff3
fffa
000c
001a
0000
fff6
fff9
0002
000d
0004
0000
fff2
fff3
fffb
fffc
0006
fff3
fff6
0002
000d
0004
fffd
000c
fffd
fffa
0009
0000
0006
001d
0005
0000
0001
0010
ffff
0001
fffa
0000
000e
fffa
fffa
fff8
000d
fff8
fffc
000b
0011
000c
0012
000a
001c
fffd
ffe1
fff6
000a
0009
0002
fff8
fff8
ffe9
fff1
0002
0003
ffea
ffea
0017
000c
fffe
fff1
000a
0008
001c
000c
0003
fff2
fffe
000a
ffff
0017
0013
fffd
0010
fffd
000b
0002
fffc
0002
000b
0006
fff7
fffa
fff8
0012
fffb
0004
fffd
0002
000a
fff9
0005
000d
000f
fff5
ffff
000a
0000
000e
0009
ffff
0009
0009
fffd
0009
0003
0009
0003
0002
0005
000b
0000
fff6
fffa
0015
000a
000a
0006
fff3
0002
0010
0009
fffe
000e
0006
0000
0003
000e
0000
fff6
fffe
0005
ffff
000b
fff1
ffee
0002
002d
0000
ffe2
fff1
0004
001c
0018
0017
fff7
fffa
fffc
fffa
fff8
fffa
000f
0006
0002
fffa
fff8
0014
0006
0003
0009
0012
000b
000a
0013
0016
000d
fffa
fffe
0002
0001
0009
000b
0005
ffff
0009
fff9
0012
fff4
000f
ffff
0000
000d
0009
fffe
0000
fff2
fffe
0004
0004
fff7
ffff
fffa
fff8
fff4
000a
fffb
fff5
0009
0005
fff4
ffff
0000
fff9
fff7
0009
fff5
fff8
fff6
fff9
0007
fffa
fffe
0006
0000
0004
fff3
000a
0000
fffa
0004
fffa
0008
fff5
0005
fff6
fffa
0002
0005
0008
fff7
0004
0000
0008
fff2
fff4
fff7
0000
fff9
fff4
fffc
fff3
fff6
0000
0007
ffff
0005
fff6
fff4
0000
0005
fff5
fff2
0000
fffb
fffa
0007
0003
0001
0000
0009
000a
0000
fffd
ffff
fffc
0007
fff6
0004
fff8
fffa
fff4
fff6
0009
fffa
fff7
fffc
fff3
0009
0009
0007
0000
fffa
0001
0005
0007
0009
0005
fffe
fffb
fff3
fff5
0003
0003
0000
fff5
0009
fffd
0009
ffff
fffc
fff3
0008
0000
0000
0008
fff2
0009
fff5
fff9
fffd
fffb
0004
fffd
0006
fff4
ffff
0006
0005
fff9
0004
fff4
0000
fff8
fff4
ffff
fffd
fffe
0000
0003
0009
0008
000b
0003
0004
fff9
fff6
0006
0001
fff8
fffb
fff4
fffa
fffb
0000
0001
fffe
fffc
fff1
0004
0000
0006
fff4
fffd
fff8
0006
0005
fffd
0001
fff7
fffe
fff8
0009
0002
000b
fff6
fff4
fffa
fff4
fff5
fffb
fffb
0001
0002
0003
0000
ffff
0002
0003
0004
fff2
fff4
fff6
0003
fff8
fff6
fff5
fff1
0000
fff8
fff2
0009
fffe
fff7
fffb
0000
fff7
0003
0008
fff2
0009
fffd
fff3
fff3
fffc
fffa
fff3
fff8
fff5
0000
fff3
fff8
fffd
fff7
fff3
fff4
fffa
0001
fff7
fff5
fffa
fff5
fffc
fffb
0004
fff4
0001
fffb
fff9
fff8
fffb
0004
fff7
0001
fffc
0002
fff3
0009
fffd
ffff
fff3
0004
fffa
0006
0004
0002
0008
fffc
0004
0000
0008
0003
000a
fffc
fffd
fff6
0005
0000
0008
fffd
000c
000a
0003
fff3
fffd
0004
fffa
000a
fffa
0000
fff4
fff8
fffc
0000
fff3
0008
fff8
fffe
fffa
fffc
fff3
0008
fff2
fffa
0004
0004
0003
0004
0003
0001
0008
fff5
fffb
fffc
0000
fffd
fffd
fff5
0003
0004
fffa
fff5
0002
fffa
0002
fff9
fffa
fff4
fff8
fff2
0000
0006
ffff
fffd
fffc
fff1
fff4
fffc
fff9
0008
fff2
000a
0002
0000
0003
0002
fff5
fffb
fffc
0000
0007
0000
0000
fff4
fffb
0006
fff6
0001
0007
fff9
fffd
0004
ffff
0002
0002
0001
0007
fff5
000c
fffe
0000
fff3
0009
0009
ffff
fffe
fff2
fff7
fffa
0006
fffd
fff6
ffff
0009
0008
0005
ffff
fffc
fffc
fff5
0002
0009
fff1
fffd
0000
0005
fffa
fff3
0001
0006
fff2
0000
fffe
000c
0001
0007
fff7
fff2
fff8
0004
ffff
fffd
fffc
0000
000c
000a
0001
0004
0011
0005
fffb
0007
0011
0002
fff2
fffa
fff8
0009
fffe
0002
fff2
000b
0002
fffc
0010
000c
0017
0008
000e
0000
fff2
fffb
0005
fff9
fff9
0010
fffc
fff4
0000
0000
0001
ffe8
ffe6
fffc
000d
fffb
fff3
0001
fff4
fffa
fff9
fffe
0009
0002
0006
0008
0004
fffc
000b
fffe
fff3
0007
0013
0001
fff6
0002
fffd
fff4
fff7
0015
0009
ffed
0002
0008
0000
0004
0009
fff5
fffa
fffc
fffb
fffb
fff4
fff0
fffb
0004
0004
000b
fffb
0006
fff8
0009
000a
0000
000e
ffee
0006
fffa
0014
0015
000a
0009
0008
0010
fff6
fff1
fff6
fffd
fffe
fffb
0017
ffff
0009
fff9
0006
0009
fff4
fff8
0007
001b
000d
0009
0010
000f
0000
fff5
fff6
0000
ffff
0001
0008
fffc
ffff
0009
000f
fff4
000e
fffa
0004
0005
ffff
0001
fff0
fff3
ffe9
0004
0001
fffb
fff8
fff7
fffd
ffff
fff6
fff7
000a
fffe
fffe
000c
000a
000b
fffa
fffa
fff6
0005
fff1
ffff
fffd
ffff
fff5
fff3
0004
fff6
fff4
fffc
fff2
ffed
0004
0006
fff7
0007
0015
fffc
0001
0002
000f
ffff
0006
0007
0006
000d
fff2
0012
fff5
fff4
fff3
fff4
fff9
fff1
fff8
0006
0000
0002
ffff
0010
0003
0005
0006
fff9
000e
ffef
ffff
0008
fff8
fffa
0008
fff6
0004
0001
0000
000b
0001
fffd
fff6
fff6
0013
0007
0007
0005
0000
0015
fff3
0007
ffff
0010
fffa
ffff
000e
fff2
ffed
ffe9
fffa
000c
ffe9
fff1
000b
0017
fffd
fffa
000d
0008
0012
0000
0006
ffff
fff3
ffee
fff9
0000
ffee
fff8
fffd
fff7
0000
0010
0018
0013
ffef
0003
0024
0013
000e
0008
fffc
fff6
fffe
0000
0000
0008
fffe
0005
fff4
0000
000e
0000
fffa
0007
fffb
fff8
fff9
fffb
0002
fff0
fff1
fff1
0001
fff4
ffff
0003
0002
fff3
fff9
fff3
fffd
0001
0014
0009
fffc
0006
0012
000f
fff7
fffe
0010
fffc
fff7
fff3
0000
fff2
0003
fff0
000c
fffe
fffb
fffa
fff6
fff7
000e
000d
0003
0000
0000
0012
fffa
0009
0006
fffd
0013
0009
ffff
fffc
fffa
000b
fff7
ffff
0001
fffa
fff9
fff3
0008
fffe
fff5
fff3
0009
fff9
000f
fffa
0008
0017
0005
0009
fffe
fff6
0000
0014
0008
fffe
000f
0002
0000
fff0
0009
001a
ffef
fff3
fffa
0006
fffb
0003
fff4
0002
fffe
0002
0003
000c
0014
0005
0003
0006
fff5
fffd
fffa
0002
0002
0000
ffee
ffef
fffb
fff7
fff9
fff1
0008
0001
0006
0006
fffa
fff7
000c
fffa
000a
fff5
fff8
0001
0008
001e
fffe
fff2
0002
fffd
0013
0006
0002
fff2
0008
fff3
0006
fffb
fff2
0000
fff2
000e
0006
ffff
fff3
fff2
0015
fffa
fffa
000c
0012
0001
0006
0016
002c
0004
fff4
0000
0005
000f
0001
fffc
fffd
000a
fffb
0002
fffb
fffc
0008
fff0
0007
0004
fff9
0006
fff4
0007
0005
fff4
0008
fff3
0006
fffb
fff7
0011
0004
fff2
0004
fffa
0000
fff4
0007
0001
fff2
fff9
0000
0002
ffe8
0004
fff9
fffc
0005
fff4
0001
0010
0002
0012
fff4
0007
0004
0001
ffe8
fff5
0006
ffff
fffa
ffff
000a
000c
fffc
0007
fffd
0003
fff6
0007
0001
0002
0007
000c
0005
000f
fffc
0006
0004
0008
fff9
0002
0000
ffff
fffa
fffc
fff2
fff5
fff5
0003
fff7
fff6
fff6
000c
fff0
0003
0000
0007
0015
0001
0007
0012
fff6
0000
fffb
0008
000a
0007
0009
fffc
000a
0013
fff5
0001
0001
fffa
0000
fff6
0009
fff8
0002
000d
0005
0004
fffd
0011
0010
0011
0004
fffc
0001
000c
001a
0015
0014
0002
0013
0005
fffc
000a
0008
ffff
fff0
000d
0005
0008
0005
0004
000a
0009
0013
0011
000d
0006
0016
0015
fff6
ffee
0010
0000
fffb
fff7
fff1
0008
fff3
fffc
000b
fff4
fffe
0001
fffb
0009
fff7
000e
0001
0001
0011
fffd
0008
fff6
fff6
0000
fff4
000a
0005
0001
ffe7
ffe6
fffb
0008
ffef
0006
ffff
0003
fff5
0000
0014
fffa
0002
fff7
0006
0000
0004
fffa
fffc
000b
fffc
ffec
fff2
fff5
0006
0026
001f
000e
ffff
0014
0012
0001
fffd
000d
0010
0002
fffa
fffa
0025
0011
fff9
0029
000c
000c
fff4
ffff
fff9
000a
000b
0002
000c
fff8
000d
fff9
fff1
ffff
0002
000c
0000
0005
000b
0006
fff9
0002
000d
000d
000b
fffd
0000
0008
0000
0006
0000
fffe
fff8
fffb
ffee
0003
fff9
fffb
fffc
0001
fffe
0009
0006
0008
0008
000c
fffc
fffe
000d
0004
fff8
0004
0000
0004
ffff
0000
000a
fff5
ffe4
fff9
0001
0006
fffd
fffe
fff0
0000
fffc
0000
0006
fff1
000c
0009
0003
0009
ffff
ffef
fff7
000a
0035
000f
fffc
0006
0003
000a
fffd
fff5
000a
0003
0007
fff6
fffb
0007
0000
0010
fffd
fff8
0008
fff4
0008
0003
fff6
fff9
0006
0004
0007
0002
000a
fffd
0017
fff2
0000
000a
fff5
0013
fff2
fffe
fffe
fffd
000b
fffe
0011
0007
000c
0023
0017
000c
0000
0004
0004
fffa
0009
fff8
fff8
0000
0000
fff2
fff8
0009
0008
fffa
fff8
fff9
0001
fffa
fffe
fffb
0000
fff4
000a
fff2
fff8
0000
fff8
fffa
ffff
fffe
000a
0009
fff3
0000
0001
fff6
000c
0009
fff6
0002
fffe
0001
fff8
fffe
fffc
fff2
0009
fff8
000a
ffff
0009
0009
fff8
fffe
fffc
0000
fff3
fff9
fff2
0002
0003
ffff
fffc
fff2
0001
fff7
fff2
0009
0000
0000
fffe
fffd
fff5
fff4
fffb
0006
0009
fff4
fff9
0006
0001
fffb
fff7
fffa
ffff
0004
0005
0003
fff9
fff3
fff5
0003
fff5
fff9
fffb
fff2
0006
fff6
0009
0009
fff9
0007
0000
0007
fff9
0006
fff4
0007
0000
0001
fff2
fffb
0007
0006
fffb
0000
fffd
fffd
0006
0001
fffc
fffc
fffa
0006
fff5
fffe
0002
0000
fff1
fff3
fff7
0005
0000
fff6
fffe
0003
ffff
fffe
0006
fffb
fffb
fff8
0004
0007
0007
fff8
0004
fffb
fffa
fffb
fffc
0002
ffff
fffa
ffff
0000
fff3
0005
fff7
0001
0006
0007
fffd
0001
fff9
0009
0006
0004
fff8
fffe
fffc
fffd
fff3
0003
fff5
fff9
fffa
fffc
0009
0003
000c
0003
fff3
0002
fff3
fff2
fffa
fff8
0005
0005
fffa
fff3
0001
fff7
0008
fffc
fff8
fff9
0006
0006
fffd
0005
fff9
fffd
fffb
0000
0001
fff9
0007
0007
fffd
fffb
fffa
fff7
0002
ffff
fffc
fff6
0000
0009
fff1
0006
ffff
0009
0001
0009
fff9
0001
fff8
fff5
fff8
fff2
fffb
fffa
0000
fff2
fff5
fff4
0009
0008
0008
fffc
fff9
fff8
fffc
fffd
ffff
fff5
0004
0009
fff9
fff7
ffff
0000
fff7
0005
0003
0000
ffff
fff7
0007
0007
0003
0008
0004
0008
fff7
0009
fffa
fffc
fffd
0005
0005
fff6
fff7
fffd
000a
fff8
0008
fff2
000a
fff3
fff9
0002
fff4
0004
0004
ffff
fffe
fff6
fff5
fffd
0000
fff5
fff3
fff4
0009
ffff
fff9
0004
fff9
0008
0007
0001
fff3
fffc
fff4
0005
ffff
fff2
0000
fffb
fff3
0005
0008
fff5
0005
0005
0000
fffa
0008
0006
0008
0004
0005
fff2
fffa
fffe
fff3
0008
0000
0005
0008
fff9
fffb
fffb
fffd
0005
fff8
0000
0002
fff3
0008
fffa
fff3
fffd
fff8
0004
fff7
fffe
0007
fff2
fff4
fff2
fffb
000f
0000
000d
0000
0002
0002
0006
0005
0005
fff2
fff6
fffd
fffc
0008
fffc
fff4
fff9
ffff
fffc
fff2
0003
ffff
0009
0008
fff6
fffc
fff8
0004
fff4
0004
0003
ffff
0004
0005
0002
0005
fff6
000a
fffb
fffa
0000
0009
0009
fff4
ffff
fff4
fffc
fff7
0000
fffd
0004
0004
0001
fffb
fff7
0009
fffb
0006
0002
0002
0003
fff3
fffe
fff9
0009
0007
fff4
0009
0003
fffb
fff8
0007
000a
ffff
fff4
fff5
fff4
0000
0008
0005
fff4
ffff
fff9
0003
0005
fff6
0008
fff6
000a
fffb
000b
fff6
fff7
ffff
0005
0008
0007
fff4
0009
ffff
0001
0008
fff8
0002
0008
0005
0003
fff7
000a
fffc
fffc
fff4
fff8
ffff
fff9
fff9
fff3
000a
0009
0000
0001
0002
000a
0004
fff7
fffe
0001
0009
0001
0003
0008
fffe
0007
fffb
000a
fff3
fffd
0007
0000
0004
ffff
fff3
fffa
0003
0003
0003
0007
fffa
fff5
fff7
fffc
0008
0006
fff3
0004
fff4
fff8
fff3
0002
ffff
0008
0006
fff5
fff8
fff8
0004
0003
fff8
fff5
fff6
0006
ffff
0007
fffa
0000
fff9
0005
fff5
fff2
0006
0003
fff8
000a
fff9
000b
000a
0008
0007
fff2
fff3
0003
fffb
0000
fff3
fff5
fff9
fffc
0000
fff4
0001
fff7
fffd
0000
0006
0009
0003
0005
0006
fff5
fffc
fffc
0007
ffff
fffd
0004
0005
fff4
0000
fff7
fffd
000a
0001
0005
fff8
000a
0000
0002
fff5
fffb
fffa
fffb
0009
0000
fff3
fffb
000a
fff8
fffb
0000
fff9
fffe
0004
fff4
0003
0009
fffc
fff4
0000
fff8
0000
fffe
0003
fff2
0004
000a
fff6
fff6
000a
fffb
fff6
fffc
fff8
ffff
0008
fff6
0004
0009
0009
fffd
0000
ffff
0006
fff7
fff3
0005
0001
fff2
fff4
fff4
0008
fff8
0000
ffff
0002
0000
fff3
fff4
0007
0005
0003
0009
fff3
0006
fffb
0000
fff9
0005
fffa
fff8
fffa
ffff
fffe
0004
fff8
0000
0002
fffe
fff8
0000
fff4
fffc
fff8
000c
fff6
fff8
fff9
fff7
fff8
fff4
000b
fff3
ffff
0004
0000
fffb
fffb
0002
fff8
fff8
fff6
ffff
0006
0006
0000
0007
fffb
fff4
fffa
0000
fffb
ffff
fff6
0004
fffb
fff9
fffc
0003
fffb
fff3
0002
ffff
fff4
fffa
0009
fffe
0000
fff8
fffe
fff8
0004
0000
fffd
ffff
fffa
0009
fffa
000a
0007
fff9
fff5
0007
fff6
fff6
0003
ffff
fff8
fff7
fff8
0000
ffff
fff3
0004
0001
fffa
fff7
fffe
ffff
0003
0006
0004
fffa
0001
0007
0001
0002
fff2
0001
0007
0003
fff5
0004
0004
fff4
fffa
000a
fffd
0004
fff7
0002
fff4
fffc
fffa
fff4
0003
fff8
000a
fffe
fff9
0002
ffff
fff5
0001
000a
fff7
0001
fff4
fff3
fff4
fffe
fff2
fff5
0005
0007
fffd
fffa
ffff
fff3
fff4
fff7
0004
fff7
fff3
0005
fffe
fffe
fff9
fff3
fff5
0002
fffe
0010
000b
fff9
000d
0010
000e
0013
0007
0007
0001
0005
0011
ffef
0003
0000
fff6
000a
0004
0002
fffc
0009
000b
fff8
000f
ffff
fff5
ffec
000e
0004
0007
000c
fffa
000d
0003
0007
fffa
ffd8
fffb
fff5
000b
fff5
ffd7
ffff
0006
0006
fff7
ffd7
fff3
0000
0001
000d
fffb
0003
0011
0003
0000
0013
fffc
0000
0004
000a
000d
fff3
fff1
fff8
fff6
0004
0001
000c
0005
fff7
000e
0006
000a
0005
0000
0003
fffc
fff2
fffa
0005
fffc
0003
fffe
0004
000b
000c
000b
0010
ffea
0005
0015
0011
0000
ffed
0003
000f
fffb
fffc
ffff
0011
0015
0000
0000
fff2
ffed
fffe
ffe7
fffe
fff6
ffed
0001
000c
0010
0014
0004
fffe
0017
001a
0011
fffd
ffed
0001
fff6
fffb
ffff
fff7
fffd
fffb
0000
0009
fff7
000f
0000
000a
fffc
ffef
000c
fffc
000a
0008
ffed
fff6
fff6
fffe
0002
fff6
fff8
fffc
0000
0003
0007
fff6
0001
000d
fff6
fffc
0002
0007
000d
0011
0006
0003
fff5
fffe
fff6
ffe8
ffed
fff2
fffc
ffeb
ffff
fff5
0001
ffee
fff2
ffec
ffde
ffff
0000
fff5
ffef
fffd
0004
0001
000b
000b
0007
000a
000d
000a
ffff
fff5
ffff
fff2
fff8
fffa
fff3
fffb
000b
0011
0001
fffd
fffc
0009
000a
0004
0013
fffd
0007
0011
0010
fff3
ffed
0003
000a
ffff
000a
0000
0003
fffe
0005
0000
0000
000d
0010
0008
fffb
000a
000f
ffff
0016
0013
0000
0006
fffe
0003
ffec
fffb
fff6
0000
fffd
fffc
0004
000c
000d
000c
0005
0003
0004
0008
0006
ffee
fff0
ffed
ffff
000b
ffcb
fffb
0001
fff2
fffc
0011
002c
000a
ffed
fff3
0031
001e
ffdf
ffee
ffff
fffd
0004
0015
0000
0009
fff4
000a
000b
0015
ffff
0006
0006
000e
0010
fffb
0012
fffd
0007
000d
fff8
0002
0006
0001
0004
fffe
ffe7
ffed
fff6
0011
0003
fffa
000c
0014
000d
000e
0006
0005
000e
0011
0000
0002
0006
fff9
0011
fff6
fffb
fff2
0006
ffff
fffd
ffef
fff2
000d
0006
fff8
0003
ffff
0005
0013
fffd
000a
0007
fffe
0012
fffa
000a
0000
fff6
000a
fffd
0000
fffc
fff9
fffa
fffb
ffff
fff2
ffe4
0003
0014
ffed
0014
0001
0007
0008
fff5
0017
ffef
0002
fffe
0007
ffff
fff3
0006
fffb
fffd
0003
0008
0016
fff6
ffef
000a
0015
0010
fff9
ffec
0005
0000
fffe
0006
0004
0001
0015
fffe
0002
000e
000c
fffa
fff7
fffa
000c
ffed
fff8
fff9
0000
0004
fff7
fff6
fff6
fff6
fffc
fff9
0007
fffc
0001
fffb
0009
fff4
fff9
0003
0000
0000
fff5
0005
fffc
fffc
fff3
0007
fffb
0003
0007
fff7
fff6
0003
fff9
fff3
0004
0005
fff9
0009
0003
fffb
0003
000d
0000
0008
fff8
fff7
0003
0006
fffe
fff3
0000
fffb
fffb
0007
fffd
000a
0002
fff6
fffc
ffff
0000
fffb
0009
ffff
fffb
0009
000b
000b
000c
fffe
fff5
0000
0000
ffff
0008
0002
0007
0000
0005
0000
0007
0002
ffff
000a
000a
fffd
0001
0009
fff5
0000
0007
fff2
0000
0001
ffff
fff8
fff3
fff6
0006
fff8
000b
0008
fff3
0008
fffa
fffa
0002
0000
fffd
0008
0009
ffff
0002
0008
0008
fff8
0006
0005
fff6
0009
0004
fff6
0005
fff4
fff7
0008
0005
fff2
0000
fff6
fffe
000c
ffff
0006
000c
fffb
fffc
0003
fffd
0006
ffff
0003
fff6
000b
fff5
0007
fffd
fffb
ffff
0000
fff5
fffd
ffff
fff4
000b
0007
fff9
0000
fff8
000c
fffc
0002
fff3
0005
0004
0006
fff9
fff9
0004
fff9
fff7
fff9
fff9
0000
fffb
0007
fffc
0003
fff9
0002
0003
fff7
fff2
0000
fff4
fffb
fff3
0007
fffd
fff6
0009
0000
0000
ffff
fffc
fffa
0000
0000
fff6
0007
0002
fffe
0001
0002
0005
fff4
fff7
000a
000a
000b
ffff
0001
fff4
ffff
000d
0007
000c
fffc
0004
fffc
fffc
0000
fffd
0006
0008
fff4
fffa
0007
000b
0000
ffff
0000
fff7
fffe
0007
0006
fffc
fff6
fff5
000a
fffa
0000
fff8
0007
0005
0002
fffe
0007
0007
fffd
fff7
000d
0006
fffe
0008
0006
0001
fffe
fffd
fffb
0003
fff6
fffc
fff8
0004
0004
fffe
0002
0004
0001
fffe
fff9
0005
fffd
fffa
0000
ffff
fff6
fffc
ffff
0003
000a
0000
fff4
0005
fffe
fff2
0001
fff2
fff7
fff4
0006
fff2
fff5
fff8
0001
fffc
0003
0002
fff4
fff5
fff4
0009
000d
0004
fff4
0007
000a
000a
fff7
fffe
fff7
0000
fffd
fff6
fff8
0002
0001
fffb
0005
0007
0002
fff6
fffa
0000
fff7
fff8
fff9
0007
0000
fff4
fff4
fff2
0003
fffc
fffe
fffa
ffff
0000
0001
fffa
0005
0009
fffe
0000
fffb
0000
0009
fff8
fffb
0009
fff7
0005
fff5
fff4
000b
fff8
fff5
000c
fff6
fff9
0007
fff7
0008
fff3
fff7
fffe
0007
fffb
0003
0000
0001
fff7
fffc
000b
0002
0006
0000
0003
0003
0005
fff7
0009
0008
0009
fffa
fffe
0005
0000
fffc
0000
0004
fff6
fffe
0003
fff7
fff8
000d
000a
fff6
0002
fffa
0000
0008
0000
fff6
0002
fff5
fffd
0003
fff5
fff5
0000
0009
ffff
fff3
0009
0002
000c
0001
0008
fff9
000a
fff4
fff7
fffb
0000
fff2
fffa
ffff
fff5
fff4
fff7
fff3
ffff
0005
fff6
fff4
fffa
0000
ffff
0003
fffa
0005
0001
000a
fff9
0008
0006
fffe
fff9
000a
0001
fff4
fff2
0001
fffa
000a
0000
fff7
0005
fff7
fff9
fff9
fff7
fffa
fff9
0000
0000
0007
ffff
0006
fff5
0002
0004
fffb
fff9
0005
fffb
fff4
fff3
0000
fff8
ffff
ffff
0000
ffff
fffb
fffe
fffa
0006
fff2
0004
fffb
fff4
0003
0007
fff7
fff5
fffc
fffc
0006
0007
fff5
0007
0000
0000
fffe
fffb
0007
000a
0006
0005
fffb
0003
fff5
fffd
fffc
000a
ffff
fff4
0000
0008
fff2
0000
fffb
fff7
0003
fff4
fffe
fffb
000b
fffa
fff6
fffc
ffff
000a
fff4
0002
0000
000b
fff8
0006
000c
0004
fffb
fffe
fffe
0007
fff9
000a
0003
fffe
fffe
fff8
fff6
fff6
0000
fffc
fffc
0002
0003
0004
0007
0002
fffb
0001
0004
0002
0006
fffc
fff3
fff7
0000
0004
fff8
0009
0009
0009
fffc
fff8
fff5
0006
0000
fffc
fffd
0008
fff9
0001
fffb
0004
ffff
0000
0006
fffa
ffff
0008
0001
fffd
0000
fff7
fff3
fff5
0008
fff9
fffa
fffd
0007
fff6
0000
fff9
fffc
0000
0004
0005
0000
fffd
fffe
fff5
fffe
fff7
fff5
fffa
fff6
0001
0008
0007
fff4
0003
0001
0004
fff3
fff6
0001
fff8
0007
fff4
fffe
000a
fffa
fff6
fff4
000c
fff9
fff3
0005
000a
0008
fff3
fff7
000a
0000
0002
0002
fff4
000b
fffa
fffe
fff6
ffff
0005
0000
0001
0003
ffff
fff8
000b
fff7
0007
0002
0007
fff5
0004
0009
000a
ffff
0009
fff5
0003
fffa
fffb
fff9
0003
fff5
fffc
fff6
fffe
0004
ffff
0006
fff6
0000
fff8
0006
0003
fffb
fffe
fff8
fff5
fff8
000a
fff4
000a
fff6
ffff
000a
fffa
0009
0001
000b
fffc
fffc
000b
ffff
0000
0003
fff3
000a
fffe
fff9
0009
fff4
fffe
fff9
0002
0004
0000
0000
fff5
fffc
000a
fffb
0001
0001
0005
0007
0000
fff6
0005
000c
000a
fffc
0006
fffc
0000
0007
0004
0000
0000
fffb
fffa
ffff
000b
0001
0001
fffd
fffc
fff9
0005
fff5
0005
fff8
0008
0000
0004
fffc
0005
fff8
fff5
0000
ffff
0000
fffe
fff6
fff8
0004
0000
0000
0000
ffff
fff3
fff4
0009
fff9
fff7
0000
fffd
0001
fff2
0007
fffb
0006
fff5
000c
fff6
ffff
fff9
fff4
fffc
fff3
0001
000a
000a
000a
ffff
fff4
0001
fffa
fffe
fff7
0002
0000
fffc
fff9
0004
fffa
fffa
fff5
000b
0007
0007
0004
0006
fff8
fffe
0004
000a
fff6
fff3
fffd
0004
fff3
0004
fffa
fff2
fff6
0008
fff7
fff5
fff6
fff7
0008
fff5
fff4
0006
fffa
fff8
0000
fffd
fffb
0000
fff3
0008
fff8
fff4
fff9
0001
fffa
ffff
fff6
0000
fffe
0004
fff8
fff8
fff9
fff7
fff9
0007
fff9
0000
fff3
fff7
0000
0003
ffff
fff6
ffff
fffe
0002
0006
fffc
fff7
fff8
fffd
fff5
0004
0000
fff3
fff3
fff3
fff3
fff7
fffe
0000
fffd
fff5
0005
fffa
0005
fffa
000a
0005
fff6
fffa
0004
fffe
000b
fffb
0005
fff4
0007
fff7
fff4
0002
0009
ffff
0007
fff3
0004
0003
0005
0000
fff3
fff6
0003
ffff
fff6
000b
fffe
0008
fff8
fff7
0003
fffb
0001
000a
0009
0003
fff6
fff6
fff8
0009
0006
0001
0006
fff4
0005
fff4
000b
fffb
fffb
fff6
0008
0009
0004
fff8
0004
0003
fff2
fff2
fff6
ffff
0000
fff7
fff7
fff2
0006
0002
fffa
fff8
0006
fffb
fff9
0000
fffd
000b
0000
0002
fffc
0002
0009
000b
fff9
0008
fffe
000a
0002
0002
0003
0005
fff4
0007
fff8
0000
fffb
fffe
000a
0005
fffe
0007
fff9
0006
0009
000a
0008
fffe
0004
fffb
fff3
0001
ffff
ffff
0004
fffe
fffe
0008
fff5
0003
fff9
0003
fff6
000a
fff7
0000
ffff
fffc
fffa
ffff
0000
fff2
fff5
0001
fff8
0009
fffa
fff6
0001
000b
000a
fffd
0007
fffc
0003
0001
fffc
fffa
fffc
fffc
fffb
fff7
fff5
fffb
0008
fffd
fff5
0001
fffe
0002
ffff
fff6
0009
0000
0009
000b
fff8
fff7
fffb
fff8
0000
fffb
fff9
fff4
0002
0000
fff9
0005
fff5
0009
0007
fff9
fffa
fff3
0001
fffa
fffc
0000
fffe
0002
fff6
fff7
0000
fff8
0006
0003
fff4
000a
0001
fff6
0008
0003
ffff
ffff
0007
0009
0009
fffb
fff4
fffa
fff6
fffe
ffff
fffe
0003
fffa
fffc
0001
fffe
0002
0000
0001
0006
000a
0006
fffc
fffd
ffff
fff9
fff9
fff4
0007
0006
fffe
fff7
fffb
ffff
fffd
0001
fff4
fff9
fffc
0009
0005
0000
0000
000a
fffe
0000
0009
0003
0001
fff8
fff6
0007
fff5
0005
000b
fff4
0000
0000
0006
fff7
000b
0009
fffe
fff6
fffa
0006
fffa
0009
fff9
fff4
0001
0008
fff9
0005
0003
0005
fffa
ffff
000a
000b
fffa
fffe
fff4
fffe
fff8
fffb
0008
fff5
fff7
0004
fff4
fff7
ffff
fffd
fff7
fff5
fff7
fff4
fff4
ffff
0000
000f
fffb
0000
fff7
000e
fffd
fffa
fff3
0009
000f
fffd
fff8
fffe
000e
fffc
0000
fff4
fffc
fff6
000f
fffe
0002
fff6
fff5
0007
0005
0009
0007
fffb
ffea
0000
000d
0005
0006
ffdf
0000
000b
0016
0000
fff2
0008
fffc
0004
ffe8
fff4
0002
fffe
0003
ffee
000f
0004
fff9
ffef
0004
0019
ffff
0002
fffc
0015
0008
0012
0003
0009
0013
0004
0000
000d
0004
0004
ffff
000d
0004
fff4
fffb
0001
fffa
fffd
0000
fffd
0005
fff6
0007
0005
0007
0001
ffff
000b
0000
000d
0014
ffef
0001
fff1
0005
fffe
0000
ffff
fff9
0004
0001
fff0
000d
000c
0006
fffd
ffff
000d
000b
fffb
0003
000c
fffd
fffe
fff0
fff3
fff5
000b
fff8
fffa
fff3
0005
0015
0011
0019
0015
000a
fffd
0013
000d
0007
fffd
fff9
fffb
0006
fff7
fff4
fffb
fff7
ffff
ffe6
fffd
ffe9
000b
0007
fff9
fff6
fff9
ffff
000f
0002
001a
000d
fff6
fff8
fffa
0009
0000
0001
fff2
fff2
0008
0009
000a
000a
fff2
000e
fffa
0006
fffe
fff8
fff3
fff8
fffb
0002
fffc
0028
0011
0008
0008
ffe9
000f
0001
fff1
0003
fff8
fffc
fff9
0008
0011
0001
0001
0007
0005
0015
000a
0001
ffec
0000
fff7
0004
fff5
0003
fffa
0000
0012
fff9
fff6
000b
0013
0006
0000
0006
fff9
fffb
fff9
0000
fffc
fff8
0003
0007
fff8
fff9
0000
000d
fff6
0000
0005
fffc
0002
0002
0006
fff9
fff0
0014
0011
000f
0008
0009
000b
fff3
0006
fffb
0004
fff4
fffd
0008
fffa
000e
0003
000e
0008
0006
0003
0006
000b
002b
0009
0002
0006
0003
0010
0005
000b
0002
000a
0014
ffff
0001
ffe7
0004
000f
0000
ffe1
0012
0003
0009
fffc
0006
fffe
000b
000a
000f
0009
fff7
fff7
0000
fff9
0000
fff9
fff8
0002
0000
ffff
fff1
fff4
fffe
fff4
fff9
0000
fffa
0001
0001
0000
fffd
000e
fff9
fff9
fff1
0011
000f
fff6
fff9
0000
000b
fffe
000e
0005
0000
0009
0000
0005
fffd
0002
0003
0001
fff3
0000
000e
000f
fff5
fff2
fff6
fffc
0002
fff8
0006
fff6
0000
000a
0007
fffc
fff1
ffff
ffff
0005
0000
fff2
0008
0004
0002
001f
fffe
ffe8
fff8
0014
0019
0007
fffb
fff7
0004
0010
000e
fff4
0003
fffc
000f
0009
0003
000f
0008
fffd
fffc
0017
0000
fff9
0015
0000
0000
fff0
000b
0012
fff7
fffc
0003
0000
0005
0007
0000
0000
0011
000c
000d
0002
000c
0006
0000
fff1
fff7
0008
fff2
