0010
0003
000d
fffe
000f
fff4
ffe0
0001
0008
fff6
ffd7
fff0
001c
fff6
fffc
0007
0017
fff6
0013
0016
fffc
0010
0011
fff9
0015
0000
0010
ffff
0012
ffda
0013
0001
0009
ffed
0006
0015
0010
0000
fff3
0020
fff2
000f
fff1
0004
0011
000f
fff6
ffef
fff7
0004
000b
fffc
fff6
0010
000b
0014
001f
0010
0015
ffed
000b
fffb
fffe
fff4
0003
0015
0003
0001
000d
ffe8
001b
000f
ffe8
fffb
ffec
ffe8
000f
0007
fffb
000e
0009
0013
ffdf
fffc
ffe7
fff7
0013
ffef
fff9
ffed
0008
000e
0004
0007
fffa
0008
fffa
0004
0002
fffc
fffe
fff4
0015
000f
fffb
ffeb
0002
0001
0018
0008
fff7
000b
fffc
0017
0000
0015
ffeb
0013
ffe8
fff7
fff0
ffff
0001
0017
ffea
000a
000a
0016
0007
fff7
ffe6
000b
001c
ffe6
0011
0004
0015
000e
001d
001d
0000
fff0
0000
ffe8
0000
0001
000f
0023
0001
ffee
0008
fff3
0024
fffd
000e
0001
0019
fff9
ffe5
0009
0001
000b
fff0
0005
ffee
fff8
fff3
ffef
ffed
fffa
0009
001e
0008
0007
0018
0008
0023
ffef
001f
0004
0029
fff3
0002
fffb
0002
0009
0009
000a
0005
fff2
0004
fffe
fff6
0010
0014
000d
0001
fff6
ffea
fffb
0014
fffe
0010
0000
0011
fff1
fff7
fff3
000c
ffeb
0007
0007
000e
fffa
ffea
0013
ffee
0004
fffe
ffe9
fff8
fff4
001d
0013
fff5
fff5
fff5
0000
fff8
0000
0005
0007
0004
0011
fff8
0021
0017
0003
0002
0015
000c
0005
ffec
fffa
000d
ffef
000d
000a
fff3
fffe
000c
fffc
fff4
0012
0015
000c
0003
fffd
fff3
ffe8
fff4
0007
0004
ffea
0016
fff5
fffc
fffa
ffeb
fffc
0002
0008
0005
000f
ffea
fffd
0003
ffe9
fffd
0010
0010
fff9
0002
ffed
fff7
ffe8
fff8
0009
0000
ffee
0000
ffee
ffff
ffed
0010
000d
0002
fff9
fff0
0007
0005
0011
fff3
000e
000e
0001
fff4
fff3
0008
fff3
0001
0014
fffd
fff7
0001
ffff
0009
fff8
fff3
0000
ffef
0003
fff7
fff4
000c
ffe9
0007
ffef
ffeb
ffef
fff3
ffec
fff2
0004
fff5
fff8
ffef
000d
fff8
ffff
fffc
fffa
0009
000c
0008
ffed
0002
fffd
000c
ffe9
fffb
fff9
fff6
0006
fff3
fff4
000a
fffe
0004
fffd
fff7
fffd
0014
fffe
001f
000d
ffe1
0016
000c
ffeb
fff7
fffc
0013
0006
0012
fff7
fff9
fff7
fffe
0005
000c
fff6
001c
ffee
000f
fffb
0013
000e
000f
0000
ffef
000c
ffe8
0009
0013
0007
fff8
0014
ffed
0000
fff6
0008
001b
fff2
0008
000d
ffeb
ffec
fff1
0010
ffef
fff2
000b
fffd
fff2
fffc
0001
fffc
fff4
fff7
0005
fff9
fff3
ffe5
fff4
ffed
000f
001c
0012
0011
0019
0003
0001
0008
0001
0011
0007
ffee
ffee
fff2
0011
000f
ffed
fff0
ffec
000b
fff0
0001
fff8
0000
fff2
0000
0008
fffd
fffc
0001
0002
ffe8
ffed
001a
0006
0018
ffee
0002
0026
0000
0001
ffee
fffe
ffe9
fff4
0001
0017
0016
fff9
0012
ffe3
0011
ffec
0011
ffe4
000b
ffec
0001
fff4
ffec
ffe8
0006
000b
ffff
0017
0002
0000
fff6
0000
fff0
0011
fffd
0005
000b
0006
001a
000a
ffff
fffa
000f
fffc
0014
fffb
0010
fff5
fffb
ffe6
0015
fffc
0001
001d
0006
ffee
fffc
fffc
fffb
fffa
fffb
fff0
fff5
fffe
fff6
000d
fff2
fffe
fff4
0000
0001
000e
fff2
0000
0012
000c
fff3
0011
0004
000f
0008
0009
0006
0000
fffb
ffeb
0009
0007
ffee
fff3
0009
000f
000b
0010
000d
0005
000a
fffa
001b
ffeb
fff5
fff4
0025
fffc
fff3
0011
0000
ffe7
ffe4
fffa
001b
0009
0019
0001
000f
000e
001a
fff9
0003
fff5
0007
ffec
0007
ffeb
0007
0012
000c
0008
000c
ffe7
0009
fff1
0016
fff1
fff8
0014
fffc
0000
0001
fffd
0004
0000
ffee
fff1
fff8
fff9
ffff
fff1
ffed
ffec
0010
fffa
0008
0012
0005
ffef
0000
ffe9
fff4
ffff
000e
ffee
fff9
ffef
0001
ffe9
0006
0012
000e
ffee
0002
fff8
0010
0011
ffea
ffe8
0006
ffef
fffc
fff2
0000
fff1
ffea
0000
000f
0011
fff8
000a
000d
0013
fffc
fff5
0010
fffe
0013
000b
0000
0005
0013
0011
fff0
0013
000e
ffef
ffe9
ffe9
fffd
000c
ffed
0013
ffea
fff6
0007
ffed
000e
000e
fff0
0006
ffeb
ffee
0003
0012
ffed
0003
0016
fffa
fff0
fff7
0002
ffec
0010
0000
ffea
0008
000a
fff2
000b
fff5
fffa
fff8
ffea
ffe9
000b
000c
0003
0000
fff1
0000
ffff
fff2
0015
fff9
0007
fff8
fff4
0013
ffef
ffff
000f
fff9
ffe7
fffb
ffff
0000
0007
000e
0006
0000
fff2
fffa
0009
fff4
ffeb
0003
000e
ffe9
0005
ffff
fff4
fff3
ffeb
fff4
ffee
fff5
000c
fff6
0000
000d
0000
0008
fffc
0000
0001
fff0
fff6
0013
0011
0002
ffea
000f
ffef
fff4
fff1
000a
ffee
fff6
fffa
0000
000b
0011
ffed
0002
ffec
000c
fff6
0012
0013
fff1
0005
0011
fff4
000a
0006
000f
fff1
0011
fff8
fffd
fffd
ffea
fffa
fff5
fffe
0007
000d
0004
fffd
000d
ffff
ffff
ffed
fffb
ffed
ffff
fffc
0008
fffb
0005
ffed
ffea
000d
ffe7
ffeb
ffeb
fff1
ffff
ffff
0011
fffc
000c
0013
ffeb
0006
ffea
0012
fff4
0010
fffc
0013
fff4
0011
fffa
0000
ffe9
0006
fffb
0007
fffd
0016
0020
fffe
0013
0016
001f
001b
fff4
fffa
ffe5
fff2
000c
0023
0004
0006
fffa
fffe
ffef
000b
ffea
fff6
0007
0018
0001
fff5
0001
ffeb
fff3
fffe
0016
fffb
fff8
0015
ffee
fffc
fff2
fff4
000a
0011
0008
ffe4
0019
0007
0008
ffe8
fff1
0011
0012
000a
fffe
0013
000c
0002
0005
000e
fffe
000f
000d
0025
fffc
fff6
0005
fff5
fffb
000d
0014
fff3
fff5
0016
000c
fff1
fff8
001c
0004
0012
0002
0024
000a
0016
001b
000d
0003
fff9
ffee
ffec
0007
0005
0013
fff0
0011
000b
001a
0006
ffef
ffeb
fff4
ffec
0014
001a
0000
0014
002a
ffff
0000
ffed
0013
ffed
ffeb
fff1
ffe9
ffe5
ffee
000b
0014
0012
ffe9
0001
fff5
fffd
fff0
fff9
0009
ffef
ffec
ffff
000b
0000
0010
ffec
ffe9
fff8
fff9
fff5
ffee
0008
0011
000c
000d
ffed
ffeb
0001
fff8
0005
fff9
0007
0009
fff6
0007
ffef
0006
0008
0012
ffef
0001
0007
000b
ffe7
0011
000b
000a
fff1
0000
fff0
fffd
fff5
fffa
ffec
000f
fff6
fff0
000b
fff2
fffa
0006
0000
0013
fff3
000a
fffa
fff6
000f
0005
0001
0012
0007
0004
fff3
fff8
0000
fffd
000a
0002
fffc
fff2
000b
fff1
fff2
fff2
fff4
fff3
000a
000a
0011
0000
ffea
000b
000e
fff1
0011
fffe
fff1
000f
0005
ffe9
ffee
fffc
0003
0013
0013
fffd
fffa
0011
0011
fff0
0014
000f
fff5
fff7
fff9
fff6
ffe9
0007
ffec
fff1
ffe9
fff6
000e
0008
fff9
000d
ffed
fffe
ffee
000e
ffeb
fffc
0010
0012
0006
000c
fffb
ffea
fff6
fff0
0009
0009
fffd
fff5
ffef
fff0
ffed
ffee
ffec
000e
fff9
0000
0006
fffc
fff1
fffe
ffea
000d
ffeb
0015
fff1
fff0
0000
fff9
000a
0001
fff0
0001
000f
fff7
ffef
fff5
fffb
ffef
0018
ffed
0004
000b
ffeb
ffef
000b
fff2
000a
0004
0010
ffef
0012
0006
0016
ffe8
fff4
000f
0010
fff8
fff9
0014
fff7
ffed
000c
0016
0017
000e
000e
000d
fff7
0005
0005
0001
0014
000f
fff9
0012
fffc
0006
ffee
0008
ffea
0000
0001
ffea
0002
0006
ffff
0000
0007
0008
ffff
ffea
000b
ffed
0005
fffb
0005
ffff
fff9
fff2
000b
fffe
fff5
000b
0000
0001
fff7
0013
000f
001c
000e
ffee
fff5
fff9
0006
001b
ffee
fffe
fffa
0007
0017
fffb
0007
fff4
ffff
fff5
0008
fffd
fffb
fffa
ffea
fff4
000d
000c
ffee
fffe
fff8
0000
ffff
0010
000c
000f
0000
ffff
0018
0012
000c
001c
001b
0003
0022
fffc
0005
ffed
0016
fff9
0006
ffed
001c
0014
ffee
0012
ffec
001d
0007
0016
0019
fff2
ffeb
0005
0011
000d
0024
0017
fff3
fff0
0000
fff2
ffec
000d
0004
fffb
ffe3
0008
0008
fff5
fff5
0023
fff9
0012
0006
fff4
fffc
000e
ffe7
ffef
000d
fff4
fff8
ffe9
0001
0016
0002
0003
fff4
0014
0022
000b
ffeb
0002
0000
0004
0000
0003
0018
ffe9
0004
fff2
0014
ffe3
0002
000e
ffef
0009
0013
000f
fff3
0016
0016
ffec
fff8
ffec
0008
fffe
fffb
fff9
0007
fff7
0002
0009
0012
fffb
ffeb
fff9
0013
0013
fff2
0011
0017
0013
0003
0005
0011
fff9
001e
0012
000d
0002
001b
fff5
fff1
0011
fffc
001f
0010
0010
0015
ffea
0007
0003
0001
0007
ffed
0000
000c
ffe8
0015
fff6
fff7
ffed
000b
0000
000b
ffec
ffea
fff0
fff7
0005
ffe9
fffc
0002
fffa
ffe9
000a
ffed
fff6
000b
0006
fff9
0003
000f
fff3
001e
001a
fff3
0002
fff3
0000
0004
0009
fff9
fff0
0006
fff2
0011
fffb
000f
0012
000d
fff0
fff1
fffa
0009
ffee
ffe8
0010
ffeb
0000
0015
0009
0016
000b
001d
000d
0011
0011
000b
0000
0002
000c
ffe9
0013
ffff
fffa
000f
fffd
000a
fffb
0007
fff5
fff4
fff7
000d
fffa
0015
0022
fff5
0004
000c
000d
fffa
ffe7
000d
fff1
0012
fff9
0001
fffc
000f
0000
0013
fff8
0012
fffe
000f
fff0
0020
0001
ffed
0018
0015
0001
0014
ffe7
fffb
ffee
fff0
0004
ffe0
fff5
0003
fff7
ffef
ffef
fffd
0015
0014
ffeb
fff3
fffe
ffec
ffff
fff1
0000
0004
0002
fffa
fffe
001c
0006
0009
000b
ffeb
0018
0015
0001
0007
000a
000f
ffe5
0010
ffef
0003
001e
fff6
fff2
fffd
0007
fff8
ffef
ffed
001f
fffc
0015
ffed
0015
000f
001b
fff5
001d
fff8
0000
0000
0011
0017
0009
000a
fffc
fff9
0008
fff0
fffa
ffeb
fffe
fff0
000b
fff8
0012
0004
001b
fff3
fffd
fff8
fffe
000a
fff6
fffd
001f
fff2
fffe
fff0
0000
001c
0014
fffe
0000
ffff
fff2
0014
0011
001c
fff4
ffef
fffc
fff0
0005
fff0
0019
0009
fffe
000f
fff4
fff7
fff4
fff8
fffc
ffee
000f
0000
0000
0012
0001
0003
0012
fff8
000c
0008
fff6
fff7
ffea
001e
fff3
0018
0011
ffec
000d
fff0
0018
fff8
ffea
ffe9
ffeb
ffff
ffeb
0000
fff5
fff6
ffed
0003
0001
000b
fff8
0015
fffc
0000
000b
fffa
fffc
ffe1
fffc
ffff
fff5
fffd
001b
0007
ffee
fff8
0003
fffb
0012
0000
ffef
0003
0002
001a
fff0
0008
fffa
000f
fff7
fffe
ffe2
ffff
fffe
0011
000d
0002
0014
0005
000b
0002
0017
0016
001a
fff1
0003
fffb
0007
000b
001a
ffe6
0015
fffc
0011
0007
001a
fff0
0015
0005
0014
ffef
001b
ffe7
fffd
0002
ffe2
0003
0003
000c
0024
0003
000e
0000
0000
0000
ffed
ffe9
ffe8
fff1
0017
0014
000c
0018
fff1
fff2
0000
fff9
0012
001e
0012
ffeb
ffe0
000a
ffff
fff9
fff1
fff8
0017
001d
ffed
ffdd
0002
0000
fff8
000d
ffed
000c
ffeb
ffea
ffeb
0007
0011
fff6
fffa
0013
ffe2
fffb
0011
fff0
ffe8
fff6
fff1
001b
0000
ffea
000f
fff6
ffee
0008
fff6
ffef
000b
0000
ffe0
001d
fffc
000e
ffdd
0000
fffa
ffec
0019
0000
0016
0005
fff9
000e
fffc
fff5
0003
001b
0009
ffef
0022
000c
000f
fff2
fff5
fff4
fff6
0005
0002
fff0
000b
0012
fffb
0011
ffec
0016
fff7
000e
0010
ffed
0007
ffee
0008
000d
0010
0015
0000
ffe8
fffc
fffc
fff5
0014
fff5
0012
000e
0015
0013
fff5
fffa
000d
ffff
0016
ffe9
0012
fff4
0005
0005
0006
fff0
0010
0013
0013
fffb
0009
fff2
fff9
0001
0000
0003
ffe8
ffef
ffe5
fffe
0008
fffd
fff4
0015
fffa
0000
0011
ffee
ffed
0004
0010
ffed
ffea
ffed
fffd
fff9
000c
fff9
fff7
ffe9
ffef
ffe6
ffee
ffff
000d
ffeb
ffef
0000
fffb
fffb
000f
000f
ffed
0008
fff5
fffd
fffa
0002
000f
0009
0010
0005
0004
fff4
0006
ffef
fff1
ffe9
0009
fff1
ffee
fffe
0000
0011
0006
0013
ffe9
0002
0000
0001
0009
ffec
0012
fffe
0009
0002
0013
0008
0005
fff2
0012
0014
fff6
ffe9
0000
ffec
0015
fff8
fff7
000b
0014
ffea
0009
000d
fffe
0001
ffe7
000b
fffe
fff6
0004
0013
fffd
fffa
fff1
ffee
fff9
0008
000c
fffd
ffeb
ffff
fff7
0006
fff4
0000
0005
0012
0007
ffe4
fffc
ffeb
000f
fff7
0008
0002
fff0
ffe3
ffe6
0004
000d
ffe4
ffe7
000c
0004
0008
000b
fff5
ffec
ffee
fff1
0003
0003
ffff
0000
ffef
fffb
ffff
ffec
ffff
0002
ffe4
fffc
000a
0013
0014
fffa
fff1
0012
ffed
0008
fff4
fff1
000a
fff1
fffe
ffee
000d
fffe
0004
ffe6
fff6
fff6
fffa
ffe7
ffed
fff1
0005
0002
000a
fff1
ffeb
ffef
0004
000e
ffed
ffea
0011
ffe2
fff1
fff0
fff9
ffe3
fffd
fff8
000b
ffe6
0008
fffc
ffe9
0013
fff8
fff2
fff4
0009
000a
0001
fff4
ffea
fff6
fff6
000b
ffea
0003
0004
0016
fff4
fff9
0009
ffff
fff2
ffec
ffff
ffec
fff5
0019
fff7
0000
fff3
fff4
fff4
0016
0019
0009
fff1
001d
ffe6
fffc
000a
0012
001b
0012
fffa
0012
000e
fff1
ffee
ffff
fff5
000a
000b
fffe
0006
fff4
0015
000a
000c
fffa
001b
fffb
0008
ffe8
fff2
000d
0015
0012
fff9
0013
0000
0018
000b
0028
0006
0000
fff4
0005
ffe0
fffd
fff7
ffff
000c
0006
0001
0013
fffd
fff6
fff0
0005
fff9
000b
fff2
fff0
fffb
0006
fff3
ffeb
0004
fff2
002d
fffb
fffb
fffc
0008
0005
ffe9
fff4
fffe
000f
fff9
fff9
0005
000b
0007
fff6
0006
ffff
0000
ffde
0005
0014
fff5
0007
0014
0001
fff3
ffe2
0011
fff2
0004
0006
ffe8
0005
fff0
ffff
0013
0009
0003
0006
000f
000b
fff7
fffb
000e
fffd
000e
0010
0019
fff3
0014
fff4
fff2
fff2
0016
0007
0018
000a
0017
ffec
000a
ffe9
ffeb
000e
000c
0005
0006
0014
0007
0003
fff6
0013
0024
000c
fff6
fff6
0009
000b
fff5
ffec
fff8
fff6
0014
000f
ffee
0000
fff9
fffa
ffe8
fff2
fffa
0011
000d
ffea
fffe
fff5
0009
fffa
ffec
0007
0013
fff1
0005
0009
fffe
0020
0005
0007
0000
fffc
ffea
fff0
fff3
0016
0015
0010
000f
000f
0010
ffea
0019
ffed
000c
000c
fff1
0008
0007
0018
fff7
ffee
0000
0011
fff8
fff8
ffff
ffec
fff9
ffec
0017
fffd
fff4
0001
0001
ffee
ffed
fffb
0005
0018
fff0
fff5
0013
0016
fff0
ffef
0009
fff2
fff7
001b
0011
0006
ffee
ffe3
0010
0011
fffe
001b
fff4
0007
0013
fffe
0000
fff8
000a
ffec
0011
0002
0018
0009
0000
0001
0017
0016
ffe6
0006
001b
fff6
000b
ffea
0002
0005
0007
0010
001c
fff5
fff9
fff8
ffe7
0023
0003
0018
0005
fff6
0008
0004
ffe5
0011
0027
ffef
0011
ffe4
fff5
ffe9
0018
0015
0007
fff0
0009
fffc
fffb
0004
fff8
0016
000f
0019
ffff
ffee
0016
fff9
001f
fff1
0017
0006
fff4
fff2
0003
fffa
fffa
000f
000b
ffea
0001
0014
000e
000f
fff5
0000
0016
0006
0014
0011
ffee
000f
ffe0
fff9
0026
fffc
000e
fff9
0002
0000
0016
0008
fff4
fffd
0018
fff3
0001
fff0
fff5
ffed
ffeb
ffec
000b
fffc
ffff
ffe8
001c
fff8
0005
ffea
0012
ffe6
fff7
ffed
0007
fff1
0011
0005
0007
fff4
0000
fffe
0001
0009
fff5
0001
000e
fffe
ffe1
0009
0005
ffee
fff0
000b
fff9
0015
0001
000c
0007
fffb
0015
0014
fff2
000a
fffa
0007
fff3
fff7
fff5
000d
0019
0011
0013
0012
001d
0013
0018
0000
000d
000d
fff8
0020
ffff
0019
0017
ffee
fffb
ffef
0002
ffea
0006
fffe
0012
fff5
000a
fff6
0013
ffe9
fffb
0017
000f
fff4
fff2
0007
fffa
0002
0001
fff9
ffee
fff1
fffc
000c
ffef
0005
fffe
ffe6
000d
fffc
001b
fff9
0013
000e
000d
0014
0013
fff0
000c
001e
0011
fff3
000f
000c
0000
fff8
0002
000f
000c
0003
fff0
0010
fff6
fff0
0012
0004
0008
0008
001a
ffea
000d
0009
0015
0020
0007
ffee
0012
fff4
ffe6
fff9
fff7
fffa
ffe8
ffec
fff1
000e
0001
000c
fffa
001b
fff7
ffed
0016
0013
fff7
ffed
ffe4
0010
fff6
ffef
fffa
fffc
ffec
0016
0022
fff3
0019
000d
0013
0025
0009
fffb
ffef
ffed
fffd
fffa
0007
0012
fffc
0000
fff4
001b
fff8
001c
0000
ffed
001e
fff2
0004
0009
0022
0002
fff2
0010
0005
ffe8
fff6
002f
0006
0000
fff2
0018
fff4
fff7
fff5
0015
0016
0017
0007
0015
fffb
fff8
0012
fff7
fffd
fffa
0015
ffe8
fff4
0004
fff7
0006
0008
0019
000d
fff5
fff5
fff0
0000
0007
0017
fffa
0018
ffec
fffc
fffd
0002
ffe4
0010
0008
ffff
000e
fff6
0006
0015
ffff
0007
001b
ffe0
000b
ffee
fffd
fff8
0004
000a
000f
fffa
000f
fff7
fff3
0016
0000
fffb
0012
0002
0000
0000
0003
0010
fffa
fffe
ffe9
001a
0012
fff0
0001
000d
fffb
0010
ffee
0002
001a
0013
ffec
fff9
0002
001b
ffef
000d
ffed
fff8
fffe
000b
ffed
000c
fff5
ffe4
fffb
0018
0013
0017
fff1
fff5
0001
fff6
0004
ffe8
0006
fff3
0007
0004
000e
ffee
0000
fff4
ffff
0013
000b
fff5
0015
fff4
fffc
000a
ffea
000a
ffed
001a
0016
0013
fffc
fffd
0000
fffc
0006
ffff
fffe
0009
001c
0000
ffe9
0003
000e
0010
fff1
ffe7
fff9
0020
0005
0002
fff0
000a
0007
000f
0006
000f
0003
0027
ffed
0016
0012
0007
fff1
ffea
0018
0002
0003
fff8
000b
000c
0014
0013
fff3
000b
fff0
fffb
fffe
0013
ffe7
000a
0015
0000
fff4
000f
000e
0011
0024
000a
0000
0016
0005
0001
0006
000e
ffee
fffc
fffa
fffb
fffd
ffee
0017
0013
fff7
fff1
0010
fffc
fff5
0008
fff4
0015
fffc
0007
fffe
0002
0004
0011
0014
000f
000c
fff5
fff7
ffed
0014
fff5
0019
0012
0005
000a
fff3
0014
fff3
0003
ffe8
fff6
0003
fffa
ffe8
ffff
fff9
fff9
ffed
ffec
0000
0003
0001
ffe6
0004
fff9
001b
0001
000a
0000
000f
0005
fffb
fffb
fff7
fff0
ffed
ffee
0000
0003
fffa
0002
fffe
0007
0008
0008
0011
0011
000e
0010
000a
0013
fff3
0000
0013
0018
0011
ffee
ffe7
fffa
0009
000b
fff0
000f
ffec
0012
000d
fff7
0013
0018
fff8
0000
0013
0005
000f
fff0
ffe3
001a
0014
0021
fff0
ffec
0009
000c
fff7
0018
0012
0016
fffe
fff8
000b
000f
000a
000d
ffeb
ffe4
0005
ffef
0015
0000
fffd
0018
0002
fff4
fffc
000e
fff6
ffe9
000a
0010
0002
0003
fff4
0013
0002
0010
ffef
000c
000a
fffd
0003
ffef
ffed
ffe4
0005
0018
ffe4
0014
fff1
0014
fff3
fff1
0009
0013
fffc
fff4
0003
ffed
0006
0000
fff5
fffa
0005
001a
fff8
0004
0000
ffe7
fff2
ffec
fff1
0001
ffed
fff8
000a
0005
000e
0005
fffd
0004
fffa
fff6
fff4
000b
fffe
000a
ffeb
ffef
0017
0014
000e
0002
ffed
ffe9
ffe3
fff1
fffa
ffe7
ffea
fff1
000e
0019
fffd
ffe8
ffe4
0008
0001
0004
ffef
001c
ffef
0000
fffa
fffe
0011
0008
fff7
fff9
0000
fff3
000f
fffd
ffec
fff4
fffc
001b
0008
0008
0007
000c
000c
fff1
fff7
0002
0017
ffea
000e
fff9
001e
0004
fffc
001b
ffe9
000d
0014
001c
0015
001a
ffeb
0014
000e
001d
fff9
0014
ffed
0019
ffec
0000
0014
fff2
0009
fff2
001b
ffec
fff9
fff8
fff5
fff4
0016
0011
fff9
fff7
0003
0016
fffd
0005
ffeb
0000
ffff
fff4
0000
0002
0005
0013
0000
0008
fffc
0006
ffef
000b
0024
ffd9
0008
0019
fff6
0011
ffe5
fff5
0000
fff4
0001
0002
0014
fffe
000d
ffef
ffea
000b
000d
0014
001a
0008
0010
0009
fff2
ffe8
fff3
0006
ffe8
0011
000f
000f
0007
fff1
0010
fffe
0008
0020
0015
ffea
0007
0015
0006
0004
fffc
000d
0021
0006
fff6
0005
ffff
ffe9
ffff
fffe
ffea
0000
000e
000a
fffc
0010
fff9
000a
0011
fff9
0013
fff7
ffea
0011
ffe5
fffc
000a
fffc
ffea
000d
fffe
0000
0019
fff2
0019
0003
0017
fffc
fffc
fff4
ffec
0007
0003
0012
fffa
fff9
fff9
0014
0019
0012
000b
fff4
0000
0016
000f
fff2
0007
0014
0014
ffff
ffea
0017
0011
fff3
0000
0014
fff7
fffc
ffff
0005
fff0
000d
0001
001f
ffe9
0009
0007
001a
0003
0008
fffd
0005
fffc
ffe8
fffa
001e
0012
0011
ffee
fff4
fff1
001a
0018
0007
fff2
000a
000b
fffd
0001
0000
0009
fffa
fffa
001a
fff0
ffff
0003
0001
fff9
0014
0013
0000
001f
0002
0008
fffd
ffe8
fffa
0015
000f
fff3
0017
fff0
000d
0012
0025
000d
fffd
000d
fffc
fffc
0006
0000
fff9
ffef
fff1
0004
fff7
ffe9
fff3
fffc
ffe5
fffd
0007
0004
fff1
000f
0006
0016
fff9
000b
0010
0011
001b
000c
0007
ffee
000a
fff2
fff2
000b
0021
ffeb
fff6
ffef
fffc
0008
fffe
000c
0003
ffe8
001a
ffeb
0001
fff8
000d
fff5
fff1
0016
fffc
0003
000f
000d
fff9
000c
fff5
ffe4
ffee
fff2
fff7
000e
001e
0008
fff7
001f
0014
000b
ffe3
0012
ffe1
0018
0009
ffe9
000b
0023
fffc
fff0
ffef
fff4
0020
fff2
fffc
fffd
fffa
0011
000c
fff4
fffc
fff6
fff6
000c
001b
ffde
001e
0016
0013
000e
0006
001e
0005
fff6
ffef
0018
0002
0012
ffdc
001e
fffa
ffe9
ffe9
ffee
0006
0020
ffe6
000f
0017
000c
0002
0004
ffef
ffd5
ffe7
000a
0018
0016
ffff
ffee
0004
000f
0009
0006
ffee
000d
ffff
ffdd
0008
fff0
fff9
0006
0008
001e
fffc
000e
fffd
000d
000e
000a
fff5
fff9
0015
ffed
fff1
0016
fff0
fffc
0011
0012
0014
ffde
0001
0019
fff1
ffe5
fffb
ffef
0009
0000
000d
fff8
0001
000c
0004
fff6
0008
0013
ffe2
ffdd
fffc
fff8
ffe5
0002
0006
fffd
fffa
000b
0012
fffd
000d
0015
fff5
fff7
ffef
ffeb
0016
0002
0012
fffb
0009
0011
fff0
0019
fffa
fff3
fff5
fff7
fffb
000a
fff5
0007
fff6
ffe9
fff5
ffdb
0024
0007
fffb
0000
0015
0002
ffec
0013
fffc
0000
fffa
000b
0006
0004
0011
000f
0018
0010
0005
fff3
000a
fff7
fff6
fff4
000d
000c
0018
fff0
0005
000f
fff0
0017
000f
0010
0019
0021
000e
fffd
0012
000a
0005
ffe5
0000
fff2
0014
0007
fff4
ffe9
000d
ffed
fff1
000c
0016
0001
0002
fff7
fff2
ffec
ffeb
0014
fff0
000f
fff9
001b
fff9
fff5
fff4
000b
0004
001f
0017
0014
ffe0
fff2
0003
000e
0002
ffff
001f
0004
0005
001a
fffa
0015
000f
000e
001f
fff1
ffe4
000b
0022
0009
fffe
001c
fff8
fffe
0023
ffff
fffe
000d
0008
ffea
0021
0010
fff6
fffe
ffff
0000
0005
fff5
0006
fff2
fff8
000f
000a
fff9
0009
0017
0004
0016
000d
ffea
fff2
0008
0015
ffe8
fff3
0014
0012
000a
000d
fffe
ffed
0021
0014
fffc
0005
fff1
0006
001b
ffef
0010
000d
0009
fffe
ffe8
fffb
fff0
000e
0015
0019
0005
fff4
fff3
000b
0000
000d
000e
0010
fff2
fff9
0004
0014
ffff
001b
0004
000e
001b
0017
fff3
ffea
0000
0009
fffb
fff3
000a
0000
0015
ffec
fffb
0014
000e
001a
ffe9
fffd
0009
0009
0025
fff2
ffed
fffd
0003
fff9
ffff
0003
0016
ffef
fff1
0009
fff6
fff6
001e
0011
0009
001b
fff4
fff2
ffe0
0013
fff3
fff4
0001
fff1
fff7
0009
ffee
0000
ffe6
0009
0001
000f
fffa
0026
000f
000f
fff9
ffef
0002
000b
0013
0001
ffea
0001
000c
0006
fff5
fffc
ffeb
fff3
0011
0003
fffa
0007
0002
fffc
ffeb
fffd
fffa
000e
0006
ffee
fffe
fff5
fff6
fff4
ffed
0008
fffe
0007
000e
ffef
fff0
0002
0000
0012
fff7
fff7
0004
fffd
0000
ffec
ffec
000a
0008
ffea
0010
000e
0002
0001
0007
0010
ffed
0000
000d
ffee
fff8
000a
fff9
0006
0016
0008
0009
fffd
0008
fffd
0017
fff4
000e
fff4
ffeb
ffe5
fff1
ffff
ffed
0009
fff2
0000
0004
ffef
0005
fffb
fffc
000f
0000
fff2
fff2
fffa
0008
fffb
000a
ffef
ffed
0000
ffec
0000
fff4
ffef
0015
fffc
fff6
0006
0000
0004
fff2
ffef
000c
fffb
ffec
fff2
ffeb
ffef
fff8
0013
fff4
0007
fffa
fff2
0002
0011
fff9
0001
ffff
0013
fff3
0000
0009
000e
0016
0005
fff0
000b
0008
fff3
000e
fff8
ffe9
0002
0001
fff2
fff2
001e
0003
fff3
ffec
fff1
0002
fff8
0019
0011
000d
000c
fffe
000e
fff4
0007
ffeb
ffef
ffef
ffe9
0010
0014
ffe5
0020
fffc
0000
fff3
0010
0002
ffe7
ffe9
ffec
fffa
fff2
fff3
0014
0018
fff8
0019
0005
000e
fffb
ffe3
ffea
000b
001b
ffec
0016
ffff
0016
000a
0000
fff3
0008
fff1
0008
fff6
001d
fff3
001d
0013
fffb
0014
001a
0004
ffed
ffe7
0005
ffef
0003
000c
fff4
000b
0018
000b
0015
0000
0020
0005
0019
0004
0006
fff7
000e
001a
fff9
fff2
0000
001e
fff8
0023
fffc
0003
ffec
000a
0000
000b
0008
ffe9
fff2
ffed
ffef
0000
0015
ffff
fffc
0000
0010
0007
fffb
0004
fffb
ffec
ffff
fffe
ffed
0005
0006
000b
000a
0005
fff3
fff1
0009
000c
fff2
0006
0010
fff4
000b
0028
ffef
fffc
ffea
0004
0018
0013
000e
fffe
fffb
000e
fff4
0011
0018
fffe
fffe
fff1
fff3
fff4
001d
0018
000b
0003
0001
ffef
0007
000d
ffef
fff6
fff5
fffa
0000
fffc
0005
fff8
0004
fff5
000e
fffe
ffec
0016
fff9
fff0
001a
0000
ffed
ffe2
0014
0013
fff5
0011
ffef
0002
000c
0002
0015
0001
ffe4
0018
0011
ffee
0005
0012
0020
fff1
001e
ffee
0002
ffef
ffe8
0006
000e
001e
fff7
0011
0006
fff3
0022
0018
0000
0014
0011
fff7
fff3
0008
0005
fff2
0002
fffa
ffee
0006
fff8
0018
fffb
000b
0018
000a
0018
fffc
0007
fffb
0003
ffef
fffb
000b
0005
0014
fff5
001f
0004
0004
fffe
000d
fffb
fffc
fffc
fff8
0007
000f
0013
fff7
0009
ffed
fff9
fff3
0017
fff4
fff6
0016
0002
0005
fffb
0007
0011
000b
ffe4
0013
ffec
fff4
0003
000a
ffee
001f
ffff
ffe6
fff9
0008
ffdf
fff0
0000
0008
0014
000f
0006
0017
000f
fff9
0008
fffe
001e
0001
ffd9
0003
0009
0002
0006
0001
ffed
001f
0000
fff6
ffff
fff0
0011
ffe8
fffb
0017
0010
001b
fff7
ffd7
0000
0004
fff9
000f
0005
fff6
0011
ffe9
ffe8
0001
ffe0
0022
fff1
000e
0004
0007
0001
ffe2
0001
ffef
001c
0006
000d
000d
000a
0001
001e
fff6
fff8
fffa
fff5
000a
ffde
0018
0013
0003
0017
0018
0005
000c
0002
0002
fffb
0012
001e
ffe8
fff2
001a
0012
0007
ffe8
0000
0014
0000
0001
0016
ffff
ffef
0010
0016
fff3
fffb
000a
fff7
ffec
000f
000c
fffa
ffee
ffee
fffb
fffd
fff4
ffe9
000b
fff9
ffea
ffeb
fffa
0006
ffed
000d
fff4
fff3
ffee
000e
ffee
fffd
0002
fffe
fffc
fff7
0009
ffea
fffb
ffed
fff0
0005
fff6
0008
0004
0001
ffee
fffa
fff3
0006
000d
0000
ffeb
fffe
ffec
fff1
fff8
fffc
0001
0004
fff4
ffea
000d
000a
0009
ffee
0000
0000
ffff
ffed
0014
0009
fffe
fff3
ffef
0014
000b
0012
0009
0005
fffb
0003
0007
fffd
0009
fff8
fff0
fff4
0005
ffeb
fff0
0003
0009
0007
000e
0012
fffd
fff8
000c
000e
ffed
fff2
fffb
0009
fff0
0015
000b
0006
0012
fff4
fff3
fff0
fff3
ffed
000e
fff9
0002
0009
fffa
fffd
000b
fff6
0006
0008
000e
0000
fff0
000c
fff2
0008
0007
0019
0014
ffeb
0001
001d
0001
fffc
000a
0012
000b
fff0
000b
fffc
fff6
fff7
fff7
000a
fff0
0002
0018
fff0
0005
000a
0018
0015
000c
ffee
0001
ffed
0007
0010
0014
fffc
001d
fff3
ffe6
0007
fff7
fff9
000b
ffe9
fffc
001e
0010
ffee
fff1
000f
fffe
0015
000d
000f
0004
000e
fff0
0018
0020
fffe
0002
000b
0017
fffe
fff9
0002
0027
0000
ffe9
0005
0010
0008
fffd
0001
fff0
0004
000d
000d
fff3
0008
0011
0002
ffea
000f
0001
0001
ffeb
ffee
000c
0009
fffb
0004
fff2
001b
ffef
fffc
000b
0005
ffff
000e
fffa
fffa
fffe
0016
fff1
0014
000c
fff6
ffee
fff7
0012
0016
ffef
0002
0000
0016
fff2
0014
fffc
fff6
fff1
0013
0001
fff8
0003
0002
001c
ffea
000a
ffeb
0005
000e
fff4
fff0
0016
0005
0004
fffe
0012
ffee
0012
fffc
000a
fffc
0003
0011
ffef
0006
ffec
0017
fff4
0017
0014
0009
fff3
ffff
000e
ffeb
fff6
ffe4
fff0
fff6
0009
fffa
fff5
0004
ffec
ffed
001c
ffff
0008
fff7
0000
fffb
fff8
0017
0017
000d
0000
ffe9
0000
0003
001a
fff4
001e
fffc
fff4
fffb
ffef
0009
fff1
ffec
0004
0009
0016
0019
fff3
0004
0002
000b
0011
000c
ffee
fff3
fff9
fff8
ffec
0013
0003
ffee
0018
0000
fff0
ffeb
0009
ffec
0015
000c
fff4
fff5
fff9
fff5
000b
0021
000c
001f
ffeb
0012
001f
0000
fff0
fff6
000c
000d
000f
0015
000b
ffed
fff1
0002
ffeb
000e
0003
0022
fff2
0007
fffa
fffd
000b
fffe
0013
0006
ffee
0019
ffff
0018
0015
0014
0006
fff4
fff2
ffeb
fff2
000f
fff4
fff1
0024
0000
ffed
fff4
001a
ffff
0014
fff5
ffff
fff4
ffe9
fff6
001a
fffe
0010
000b
fffb
fff3
fff4
fffd
0003
000e
000b
0007
fff0
0016
0019
fff4
fff0
fff6
ffe8
0000
fff8
ffef
fffb
fff1
ffe8
fff7
ffee
0017
0013
fff7
0011
0004
ffec
0004
0026
fff3
0009
fffd
001f
0003
ffef
0019
0000
ffee
fff5
fff0
fffb
ffea
ffed
0003
0001
002c
fff7
ffed
0001
0003
0013
fff5
001a
0012
0001
0016
000b
0010
0007
fff1
ffef
ffff
fff1
ffe8
ffe8
fff6
000e
fffc
ffe8
fff2
0009
ffe9
fff3
fff4
fff7
ffef
ffff
ffff
0008
fff7
0004
000e
0000
0004
0011
fffd
ffea
0000
fff7
fff8
0012
fff4
ffed
fffa
0011
fffd
ffe7
000e
000b
0004
ffee
0003
0005
ffea
ffef
000d
000c
fff7
0000
0012
0012
fffe
fff8
ffff
000f
0002
fffd
fffc
fffc
000b
ffe9
000a
ffee
fff8
fff1
0010
fffc
fff9
0012
fff4
fff4
fff4
0007
0011
ffeb
ffec
0003
0009
0004
0004
fff8
000b
0015
000f
000a
ffe9
000b
fff4
fff4
0007
fffb
0000
0007
000c
0009
ffec
fff0
000a
0001
0001
0013
fffd
ffee
0006
0000
000d
fffc
0006
000f
0005
ffea
0013
0006
0008
fffc
fffe
ffeb
fff2
0001
ffea
0010
ffeb
fff2
0016
fff0
ffee
0012
ffff
fff2
0003
ffed
0007
0002
000a
001c
fff3
fff4
fffe
0005
fff6
fff3
0016
000d
ffef
ffee
fff2
0000
ffef
0005
0000
ffe2
fffc
000c
ffe5
0000
fff2
fffe
001a
fff0
0015
0016
ffeb
ffed
fffc
fff6
0001
0013
0010
0000
ffeb
0001
000d
0029
0005
0016
fff9
fffe
0005
fff6
000c
001d
fff8
ffef
0011
0015
0000
0012
0005
0014
fff3
001b
ffec
fff8
fff4
fff7
0011
ffef
0000
0019
ffdb
0002
000a
fff8
fff9
000f
fffd
0015
0006
ffe2
0019
0005
0021
000c
0020
0004
0013
ffeb
000e
ffe1
0013
0005
0014
000b
001c
0008
ffed
000e
fffc
fffc
0000
001c
001a
fff4
ffe7
fffb
fff5
fff1
fff4
0012
000b
0013
000c
fff0
000f
0004
ffe5
fffe
000d
000d
ffea
fffc
000b
0008
001c
000c
ffee
0015
0004
0001
0002
000d
0015
0007
0007
ffe5
000d
0018
fffa
fffd
0015
fffd
fff2
ffeb
000a
fff7
0017
000e
ffee
000d
000c
001c
fff0
0000
0001
0014
ffff
000c
0000
fff3
fffc
0008
0015
fff9
fff2
0002
000c
fff2
0007
0005
fff5
0001
0010
0000
ffee
0019
fff2
fff3
000e
001a
0008
0010
0004
fffb
fff0
fff2
ffea
ffea
ffea
fffc
fff2
0021
fff4
ffef
ffff
0002
fffc
ffe6
fffa
fff6
ffed
fffb
fff7
0018
fff6
fff9
fff1
fff5
0006
0006
000a
0007
0013
fff4
000d
0015
ffeb
fff5
000f
0000
ffe4
001f
fffa
001d
000d
ffed
fffe
001c
000c
ffef
fffd
0007
fffc
0013
fff2
ffe4
ffee
ffee
ffff
fff4
fffa
0007
ffec
fff9
001e
fffb
0015
000a
0017
0013
fffa
fffa
fff4
000d
0000
fff7
0001
0005
fffb
0008
0016
fff2
0008
0004
0016
000c
ffef
0004
000b
0006
fffa
000c
000b
000e
0006
000d
ffea
0006
fffb
0009
fffc
000a
fffa
0018
0010
fff9
0021
000e
0024
001c
000f
ffe5
ffff
0003
0006
0008
000a
fff2
0007
fff2
fff8
0005
002a
000c
000f
000c
ffeb
0003
000a
fff1
fffd
0006
fff1
fffc
0004
fff6
0000
fffa
000b
fff1
0006
fffc
fff1
000c
0008
ffea
0013
0004
0011
0005
0000
0017
fff8
0012
fff4
fff6
ffe6
0010
fff0
fffd
0001
0018
fff4
0021
0007
fff4
000f
001c
0018
0000
ffe1
0000
ffee
0025
0009
fff1
ffff
ffed
fff0
fffd
fff1
0013
fff0
fffd
fff5
0005
ffee
fff8
fff3
ffee
ffeb
001a
fffb
fff2
ffff
0005
ffee
001b
fffa
0005
fffa
000f
fffa
000a
ffe8
0008
0008
000c
0018
ffed
fffe
fff8
ffee
fff1
000b
0000
0011
001f
fff2
ffee
fffe
fff6
0007
0014
0001
0013
0012
0004
0022
0016
0008
0012
0016
0002
fff4
ffeb
0015
ffeb
fff6
000c
ffe9
0000
0008
fffe
fff0
0011
0000
000c
fff4
fffe
fff3
fffc
0000
001d
fff3
0011
fff0
0004
ffed
ffff
0008
fffb
ffff
0009
0001
0007
001c
001e
fff9
ffff
000a
0002
ffff
ffee
fff4
0014
ffe7
000c
fff8
000e
001b
fff7
0019
0016
fff0
0002
0015
ffec
ffe2
0008
0010
000b
0018
ffed
fff1
ffff
ffeb
fffc
000b
fffc
0017
0011
000b
000d
0009
000f
0003
fffe
0002
0001
0003
001f
0004
ffef
fffe
0012
fff5
fff1
000d
0011
0017
fff3
0013
fffe
ffff
0000
ffe7
0015
ffe6
000e
fff7
000e
ffea
000a
0006
0013
000f
fff9
0016
fffd
000a
001b
0002
ffd4
ffeb
0018
fff9
0006
0005
fff2
0013
0001
fff9
fffc
fff7
fff1
ffe5
ffec
0013
fffb
fff4
fff7
ffdd
0008
fff0
fffe
fff7
fffa
0010
0000
fffe
0003
0004
ffee
0001
000c
fffc
fff2
fff6
0008
fff7
fff8
0009
0017
ffee
fffe
ffe4
0000
ffff
0010
000e
0006
0008
0006
ffff
fff0
002f
0014
0008
001a
fffa
ffea
0000
ffe4
0010
fffe
ffec
002a
ffed
fff4
fff3
ffec
fffc
000e
0001
0005
fff1
fff0
0016
ffee
fff5
0012
0001
0002
0011
fff6
000f
ffea
000a
0004
0018
0003
0011
ffee
fff3
ffee
ffef
000d
ffed
000a
fff0
0013
fff7
fff4
0019
0006
0016
fff4
0016
ffe6
ffeb
fff3
fff0
001f
fff5
0005
fff4
0001
000c
fff3
fffd
0007
000e
0006
fff3
0013
0008
fffd
000a
000e
0025
ffef
0028
000f
0001
0000
ffe0
0002
fff8
0009
0011
fff4
ffec
0013
ffe7
fff8
001b
000b
fffd
0010
ffee
fff2
000f
ffe7
0006
000f
000b
0004
fff6
001f
0001
0014
0003
000e
fffd
000e
fff3
fff9
fffd
0005
fff2
0009
0010
fff8
000f
ffee
fff5
fff4
ffef
fff6
0005
fff6
0022
fff5
0008
fff9
fff1
0018
0008
001b
0029
0001
0010
ffee
0005
fff6
fffc
fffd
0005
000f
fff9
0008
fff0
ffef
0015
0013
fff7
000a
000e
000a
0000
0014
ffee
fff0
0017
ffeb
000d
0018
000a
fff8
ffec
fffa
0013
fff8
fff6
0002
fff5
000e
0019
0004
fff8
0000
ffeb
0015
0001
fff3
ffef
fffe
fff7
fff7
fffb
001b
000b
000d
0012
0006
000c
fffd
000b
ffff
0009
0008
fff3
ffff
fff1
ffe8
ffe6
000e
fff4
fff3
0004
0015
001f
ffff
fffd
000c
ffec
0009
0010
fff4
ffed
fffb
0012
0012
fff9
0000
ffe5
ffff
0001
fff2
0019
0001
fff3
0014
0022
0010
000d
fffe
fffd
0012
0012
fff1
0004
0016
fffc
0012
ffed
ffff
ffec
ffe7
fffd
fff7
ffef
fff8
0004
fff3
0015
fff0
0005
fff1
0008
fffd
fff5
fff3
ffe3
ffe9
fff1
0004
0002
fffb
0007
000d
ffed
0007
fff1
fffa
0012
000f
fff3
0014
0017
0001
fffe
ffea
fff2
fffa
fffc
ffe8
fff0
ffed
ffe9
0005
ffe4
000b
0009
fff3
ffee
ffff
fff8
0013
fff9
fff3
ffea
0006
0002
fffe
fffe
ffef
0000
ffed
ffec
ffeb
0003
000f
fffa
000c
0003
fff1
fff7
0007
ffff
fffe
ffe9
0000
ffff
ffe7
000e
0014
ffee
000b
ffec
0004
0001
0002
fff6
ffee
0000
fff3
000d
000a
0013
0013
000c
fff7
0004
000e
0001
0000
ffee
ffee
fff2
ffe8
ffef
0010
ffee
fff0
0003
ffe8
000f
fff6
0011
0002
fffc
000d
0011
0006
fffd
fffc
000f
000c
000f
000a
ffe6
ffe5
fffc
fff2
0015
fffa
000b
0014
ffed
fffa
001b
ffe0
0006
fffe
0015
ffed
ffed
0005
fff1
000a
0000
ffef
0010
0003
000d
ffed
0014
fff5
0012
fff7
0007
000a
0007
fff6
fff9
fff2
fff5
001c
0016
0029
fffd
0013
000d
0005
0023
fffb
000b
ffff
fffa
fffb
ffe7
000e
fff2
0005
0002
0014
fffe
0006
ffe9
fff6
000b
0018
0013
001a
ffe5
ffee
fff1
0018
0009
0001
0003
0004
0007
ffeb
000a
000f
ffff
fff1
fffc
ffe7
000b
0000
fff4
ffef
fffb
fff4
0004
ffff
ffed
fff9
fffb
000d
0003
0015
0009
fffc
fff2
0026
ffe6
0003
0017
0004
ffee
000b
0016
0016
ffff
000d
0014
001b
fff0
0009
fff6
ffe9
0016
fffe
0000
000e
ffe9
000b
000a
0001
0002
fff2
0013
fffc
001c
fffb
0012
0001
0001
ffea
fff9
fff4
fff7
0006
fffc
000a
fffd
0004
fff7
001d
0003
0004
0018
fffc
0017
fff1
0009
0016
fff5
fffb
fffb
000b
0003
0000
fffd
0008
ffed
fff6
001b
0006
0024
000e
000c
0007
0013
0012
fffb
001a
ffea
0018
fff4
0018
fff0
0014
0013
fffd
0011
0018
000d
fffb
0014
001b
0010
0007
0004
ffef
000d
0001
000d
ffee
0015
fff5
fff1
0010
0002
0001
0011
ffe2
000c
0013
fff1
0006
fffa
fff0
0015
ffe7
0000
0007
ffee
fff5
fffd
000f
000e
fff3
fff0
000c
0015
ffee
fffd
0015
0012
ffe9
0012
ffec
fff3
fff7
fff3
0014
000e
fff8
fff3
0003
ffeb
0000
0009
fff6
001a
001c
fff0
0011
0014
0010
fff2
fff8
001b
0001
0017
0004
fff9
ffea
0000
ffef
0010
0012
000b
ffe7
0012
0014
ffec
ffec
fff1
000e
fffa
0009
0016
0006
fff9
fff9
ffed
fffe
ffeb
fffa
0012
000a
fff9
ffec
0009
0014
ffec
000a
ffea
000f
000a
0007
fff6
ffff
000c
ffeb
fffc
000f
0014
0000
000b
0003
0003
fffc
ffec
000e
fff0
fff6
fff1
fff4
fff8
0002
fffb
0012
0000
fff3
ffef
fff1
fff3
0007
ffec
0005
ffec
0013
fff2
000a
0008
fffa
fffe
fff5
fffc
0003
0014
0004
fffb
fffd
fff1
fffb
fffd
0000
fff9
fffe
fffd
ffea
0014
0011
000d
ffea
0003
fff5
ffee
fff8
0009
000e
0002
fffe
0001
fffb
ffe9
0010
0009
ffeb
fff5
0006
fffc
ffff
ffe9
000c
0006
000c
fffc
fffc
0005
ffff
fff1
fff1
0014
0002
0015
0004
fff9
ffea
ffe5
fff8
0014
000e
0024
ffe0
fff6
0001
ffe8
fffc
0001
0018
fff5
0013
0013
0008
001d
ffff
ffff
0020
000a
fffe
0003
0008
000f
fff1
ffdf
fff2
001d
0012
0013
ffe9
001d
0015
0008
0006
fff4
0011
0005
fff0
000c
0012
0013
ffe7
0007
001b
fffa
ffef
fff3
ffff
0003
0015
000f
ffed
fff0
fff7
ffec
fff7
000a
0008
0018
0017
0012
0004
0008
fff3
fff1
fff6
0003
fff1
fffe
0006
0004
001b
000a
0014
fff6
ffeb
0002
0005
fff3
001a
ffff
fff1
ffed
0011
ffe1
000c
0007
0019
000e
ffe3
fff8
0013
ffeb
0006
ffe3
0000
0000
000d
0003
fff0
0009
000e
000c
ffee
0004
000c
fffe
ffe9
fff2
000b
0012
0008
000e
fff8
ffe3
fff1
ffea
ffee
0007
000b
ffec
0003
0019
ffe7
fff9
ffff
fff8
fff2
0003
fff5
0028
0004
0012
fffa
fff3
ffe5
0012
fffd
0012
0003
0001
001e
fff1
0005
fff8
fff9
0017
0007
001a
000b
0006
0000
0005
001d
0011
0000
fffe
0011
fffa
0010
0015
fff8
0005
ffef
0005
fff5
0011
0013
fff9
0017
0014
fffc
0017
ffec
0013
fff5
001f
fff1
000f
0012
fff2
ffe4
0014
0014
fff4
0016
001b
fffd
ffff
ffe6
0000
000f
0001
0009
ffe0
fff4
0017
000e
fff2
0015
ffe6
000a
ffd4
fff0
ffed
ffed
fff7
0013
0014
0021
ffeb
0012
0013
000b
ffde
0014
0006
000a
fff9
0011
0003
fffb
fff3
0001
0002
fff4
fff6
0006
fff3
0009
000f
0014
001c
ffec
fff4
0015
fff3
ffed
ffe1
0012
ffeb
0004
0004
fff9
fff4
ffef
ffeb
0008
000a
0008
ffea
000b
001b
0001
fff2
fff9
fff6
fff9
0001
0008
fff6
0005
0015
0006
ffe3
0008
0011
0000
ffe1
ffe0
ffff
0013
ffed
000a
0004
fffe
0001
0004
fff5
0011
000d
0003
000d
001b
0001
000e
fff4
ffe9
ffff
fff7
001c
0018
fff2
fffa
0008
fffe
fff9
ffee
fff4
000e
0005
0001
ffed
0000
000a
0002
ffef
0016
fff8
0007
ffd9
ffe6
fffe
ffef
fff7
fff2
0016
ffef
ffee
0021
0007
fff9
0010
001c
ffe4
0002
0006
000b
ffe9
0001
ffea
0013
000d
fff5
0021
fff0
0008
0001
0011
fff1
0012
000a
0019
0013
fff0
0008
0003
fffe
fff9
0014
ffff
0000
0000
fffa
0001
0002
0001
fffb
0025
fff8
fff1
0009
ffff
ffe9
fff3
000a
fff5
ffea
000d
ffe6
fff1
ffeb
ffe7
000a
ffee
001f
ffee
fff6
ffdd
0007
0007
fffd
0011
fffd
000b
fffe
0010
ffff
0012
0021
0009
0013
0008
0012
fffc
0000
fff6
0009
fffc
0016
ffeb
0012
fff7
0023
0003
0010
fffa
fffd
0011
0008
0006
0006
0016
fff9
ffeb
001c
fffe
fff1
fff6
fff2
ffef
001b
fff0
fffb
fff2
0010
ffeb
0010
0004
0010
fffa
0023
0011
001c
0017
0003
ffe4
0004
0009
ffef
0014
fff6
0024
0008
001e
fff3
0002
ffe1
fff6
0002
fff1
0006
fff0
fff1
0000
001e
ffd7
0016
0012
ffeb
0000
0017
ffea
000c
fff2
ffeb
0009
0002
0014
0000
0012
fff2
fffb
fff4
0000
001c
fff5
0006
0009
0002
0008
ffef
0015
fffa
0006
ffea
fff9
0011
fffc
fffe
0012
ffff
fff6
000f
0014
fff0
0008
0011
0013
0007
fff6
0018
fff7
ffed
ffed
fffb
001b
fff9
0010
fffa
0006
0007
fff4
0012
fffe
0010
0007
000b
fffa
0007
0001
fff2
0013
ffee
fffa
0012
0011
000a
fff1
fff4
ffea
ffec
0010
fff8
0002
ffe9
0006
fffd
fff2
0003
fff0
fff1
0000
fff6
ffee
fffd
fff6
0006
0000
fff2
fff4
ffed
0001
0007
fff0
0015
fff7
ffec
0012
fffb
0001
0014
ffef
fffe
ffdf
fff5
0016
ffff
0002
fff8
ffed
0013
fffa
0000
fff8
000e
000d
0012
000d
0000
fffd
0000
0014
0016
0002
fff7
fff4
fff2
0002
fff8
0000
ffeb
000f
0018
fffb
fff4
fff1
ffec
001f
0014
0000
000a
000a
000b
ffee
fffa
fffa
000f
fffd
fffa
0004
ffed
fff4
fff7
ffee
000e
fffe
0000
0009
0025
000f
fffd
ffe9
0006
001d
fff1
0010
0000
ffee
ffec
ffe8
000e
0000
0017
0003
fff6
000e
fffc
fffa
000f
fff2
0003
fff6
ffe9
ffe9
000a
0019
0010
001f
ffff
ffec
0004
0020
ffec
ffef
fffb
0000
ffff
0000
0001
0000
ffed
fff2
fffb
fffb
ffee
000c
fff0
0009
0013
fff1
fffd
0007
0002
001d
000d
0004
ffee
fffb
0000
0013
0015
0006
fff4
0002
ffee
ffe9
0011
000a
fff8
0006
ffeb
fff2
0003
0004
001b
fffd
ffee
0017
fffa
ffeb
ffeb
000f
ffe7
0002
000e
ffeb
0006
fffa
000b
0027
0000
0001
0008
fffa
fffb
0013
0002
0006
000b
0005
fffe
fff4
0000
0019
fff1
ffff
fff2
0015
0012
001a
001e
ffff
0010
001c
0000
000d
000f
0016
0007
fff1
0000
fff5
0005
0015
0004
0024
0016
0014
000c
fffc
fff6
0014
fffb
000d
fff2
fff6
fff4
0011
0008
0008
fffc
fff0
0022
fff0
0002
fff0
000b
0016
000b
0005
0014
0014
000e
0001
0005
000e
ffee
ffef
001f
0010
fff3
0018
fffe
0009
000d
000e
0009
000c
ffef
fffd
0005
0018
0006
0000
fff1
fff3
001e
0018
ffed
fffd
0000
ffee
fff7
000f
0000
0006
fff0
0004
0011
0007
fff5
fff1
fff4
0006
0029
ffde
ffef
0016
000d
000b
0013
000a
ffef
ffeb
fff9
0012
fff7
0009
0008
000d
fff7
ffe5
000f
ffeb
000b
fffa
ffeb
002a
0016
0003
fffe
0001
0022
ffeb
0006
0014
fffc
fff5
0008
001a
0017
ffe7
ffe1
ffeb
001a
0013
fff8
ffed
0013
ffe7
fff5
0014
fff9
0010
0003
fff0
0013
fff2
0008
fffc
fff2
fffb
0011
fffd
ffea
0011
ffef
000d
fff3
0011
fffb
fff2
fff7
fff1
ffeb
fff4
0000
001c
000a
fff5
0016
0015
fffa
000f
0013
000e
0005
0012
0002
fff2
fff7
0018
000e
0006
ffe3
0011
000e
fffb
0004
0028
ffff
0006
fffb
ffee
0009
0001
ffe4
0004
000e
0006
fff6
fffc
000f
ffff
0009
ffdd
0011
fff3
002a
ffff
fff3
ffec
0006
0013
fffa
0004
fff8
000c
0004
fff0
fff6
0011
ffec
0009
0000
0003
0008
0009
0013
0017
fff1
ffeb
ffea
fffc
fff4
fffb
fffa
000a
fff4
0014
0000
0009
000e
ffeb
ffed
fff6
fff0
0005
fff2
ffed
fff2
0004
000f
fffc
fffe
fffa
fff0
fff3
fff4
ffef
fff3
0000
ffe9
0012
0004
ffea
fff7
0015
fff9
fffa
fffe
ffff
0016
ffec
0007
0012
fffb
fffe
0015
ffeb
fffe
ffec
000b
fff7
fff6
fff6
000e
0009
0014
fff9
fffd
0009
fff6
fff6
0009
fffa
0013
000d
ffeb
fffe
0002
000c
fff4
0017
0008
0000
000f
0008
fff5
0013
fff1
ffec
0014
fff6
fffd
ffee
0007
0014
0005
fff4
ffee
fff3
000b
ffe8
fff3
0003
0003
fffe
ffee
0002
0013
0011
0017
0005
ffe9
fffd
0000
fffe
ffee
fff5
0002
0004
0009
000d
0012
000c
0005
0005
fff8
fffd
0004
000c
0006
ffff
001b
0013
000a
0012
0018
0003
fff9
ffe6
0013
fff7
ffe2
0001
000f
0002
000d
0008
ffed
001b
ffec
ffe7
0021
0005
fff0
0016
ffff
0012
fff2
000d
0012
ffff
0012
fff8
000e
000e
ffd8
000c
fff2
fffc
0015
ffea
fff4
0015
fff2
0017
0014
ffec
fff5
fff8
fff9
fffc
001d
0016
fffd
0006
fff2
fffc
0020
001c
fffd
ffe8
fff1
ffdc
0001
0008
fff5
fff7
001d
ffdd
0000
fff1
0000
000e
fff4
0008
000c
ffda
fff3
ffff
0003
001a
000d
001c
fff3
0014
0009
000a
0008
0022
0005
fffd
0010
0017
ffe9
ffe5
fffc
0004
0012
000d
fff1
0016
000b
fffb
000b
000a
0011
fff7
0001
0013
fff7
fffa
000d
0015
000f
0008
000b
0011
000a
000d
ffe7
0018
000c
fff5
000b
fffd
0009
0013
fff0
ffec
001f
001b
fff8
0000
000b
0015
0008
0014
0006
0008
ffef
fff8
fff4
ffe8
000b
fff2
fffc
0006
0007
0007
fffc
0005
000d
fff9
fff5
fffc
0019
000b
ffef
000f
0012
000e
ffef
fff9
ffed
fffe
000f
000b
0020
0006
ffeb
ffea
001d
0001
fff2
ffe7
0018
fff0
fff8
0007
0012
fffb
0008
fffc
ffed
0008
ffe7
0004
000e
ffe6
fff6
ffff
0004
000c
0019
0002
ffeb
0007
0012
000d
fff1
0004
0003
0000
fff2
ffed
fff8
fff1
0002
001a
0020
000a
ffe7
0013
0004
ffff
fff5
0014
fffe
0011
fffb
fffe
fffb
fffd
fff1
ffe9
0008
000b
0012
ffe8
0002
fff7
0001
000a
0014
0017
fffc
fffa
ffeb
000d
0011
0017
fff0
ffed
0001
0000
000f
fff1
fffa
ffe8
ffee
fff3
000a
ffed
0011
0007
0000
0016
fffb
fffc
0010
0003
fff9
000b
001c
0000
fff0
fffb
0016
000d
0000
ffff
ffff
fff4
fff7
0018
fff7
ffee
0007
fff1
fff4
0010
0009
0008
fff4
fffa
0012
ffff
fff9
fff1
0006
0008
0001
0000
fff5
0001
0017
000c
ffed
fff5
000a
0000
ffe7
0004
fffe
0013
fffa
fff6
000f
0019
000c
000e
0010
0006
fff6
0000
0006
0019
ffe7
fffe
000b
fff5
000e
fff2
fff1
0001
0001
fffd
000c
ffdb
fff7
000e
fff6
0003
0017
fff4
0008
ffec
0000
fff1
0017
fff9
fff9
001b
fff2
000d
000d
0017
fff1
0018
0002
0004
0005
000c
000e
ffff
fff0
0006
fff9
fffc
0019
ffed
0006
0013
0007
fff6
fff9
0008
0009
0015
0016
001c
ffe3
0007
0015
0000
0014
0009
000e
000d
0000
0015
ffea
0002
fffd
0010
0021
0005
0013
0000
000f
fff8
0014
000e
fffe
0004
0008
000b
001f
000e
001d
ffea
fff3
0004
0018
000a
0007
0002
fffd
0007
fff7
0005
ffed
000e
000b
000b
0000
000c
fff6
000d
ffe8
fff9
0007
fffb
0018
000c
0003
fffb
ffe3
0022
ffed
ffec
ffee
0002
ffe9
0000
000b
fffd
000c
0005
ffed
ffe5
0008
0005
000f
ffeb
0020
001a
0001
000a
0007
ffeb
fffa
0010
0019
0007
0004
0005
0013
0007
ffe9
ffe8
000b
ffff
000f
0011
fff9
0019
0006
0022
fff5
ffef
fff2
fffc
0003
001a
0016
0009
0005
fffb
001a
0005
fffc
0018
fffd
0014
000f
fff7
000d
ffe5
fffd
0010
000f
fff3
0014
0010
0010
ffef
001b
fff4
0016
0017
0018
fff8
0012
0006
000f
ffe5
ffea
ffec
0011
fff6
000e
fff5
fffb
0018
0007
fff3
0000
0005
ffe4
001b
0000
fff5
0000
000e
0017
000c
0018
0005
0010
0003
0006
0010
0015
001d
0002
ffe3
0006
0008
0010
0005
fffb
fffc
0005
0020
fff1
fffe
0011
fffc
0000
0016
ffff
0009
0021
fff7
fff6
ffff
000e
fff4
0012
000e
0003
ffdf
fff0
0015
ffe0
0024
fff1
000e
fffc
002a
fffb
ffe8
000c
0003
000e
fff9
000b
fff2
0009
0009
fffe
fff7
0007
ffec
001d
fffe
0004
fff8
ffe2
fff3
0005
0004
001c
ffe1
fff3
0000
000c
0010
fffa
0002
ffff
0000
ffff
0019
0008
0002
ffe9
ffea
0015
000d
ffe5
0004
fff5
0004
0012
000b
fff6
0000
ffec
fff4
0005
fff4
fff3
fffa
0012
ffe9
0007
fffa
0013
fff9
fff7
001a
fffc
ffee
ffe4
000d
fff5
0013
000e
ffe2
fff5
0004
000c
0010
fff1
fff7
0015
0018
000a
000c
0003
0008
fffe
0011
000c
001d
fffe
0028
fffe
fffc
0015
ffe6
0009
ffe9
fffe
fff8
ffe2
fff4
fffa
ffee
0019
0007
0002
fff0
0009
fff5
fff6
ffee
0009
0015
fffa
000b
fff7
ffff
fff7
0016
ffed
0027
0012
fff1
000f
fff5
0014
0007
0015
0005
0001
fff2
fffd
001e
0008
fffe
0012
fff1
fff8
0019
ffef
0015
ffe8
000e
000c
fffb
0019
0009
0000
0002
fff5
ffe7
001a
fffb
0007
001b
fffe
0013
0000
0002
0010
fff6
0016
000e
0007
0001
0018
fffb
0004
000d
0000
ffeb
0015
fffa
0010
ffff
0013
fff1
0013
0008
ffe7
ffed
fffb
000d
0008
000d
0005
0015
fff8
0011
0003
ffee
0002
0020
fff7
ffed
0000
ffee
fff7
0000
0007
0000
0022
000e
000a
0001
fffe
fff3
000d
0000
0009
0004
fff3
0002
000e
fff5
0015
0013
ffef
0012
0002
fffb
0014
0009
fff8
0012
0014
0004
0006
0018
0010
fffc
0013
ffff
fff6
0009
0007
0016
ffe2
001b
fffc
0001
000b
000f
0013
ffe7
ffe9
ffec
0001
fff3
0002
ffec
0007
001e
fffa
fff8
000a
fff0
0016
ffea
ffed
ffff
ffe4
000a
fff2
fffc
fff8
0000
fffb
ffff
fffd
fff6
ffec
fffb
0014
000d
fffe
0001
0003
ffee
000e
0007
001b
000a
fff0
fff6
0002
000f
ffff
000b
0016
fff1
ffec
0009
ffeb
fff9
ffff
001d
fff9
0000
0026
000f
0014
000a
0007
0011
000b
0012
0000
000c
fff1
0006
001c
fffe
000a
0006
0005
fffa
0000
0000
fff6
000d
0003
fff8
ffed
0015
000c
0003
fff5
0009
fff0
fff2
ffeb
0008
0002
ffeb
fffc
fffa
000c
fff4
ffec
fff6
0017
000c
fff3
0013
fff3
fffb
ffec
0011
0007
0015
ffe4
000a
0008
0022
ffe5
0002
000a
000b
fff9
0000
001a
fff0
fff8
001c
000c
fff9
000d
fff0
0017
fff1
000f
ffea
fffd
0012
0006
ffef
fffd
0000
ffe9
fffa
fff9
0003
fff6
fff6
0001
0004
fffe
0007
ffed
fffd
fff3
fff7
fffa
0000
ffea
ffee
fff4
fff2
ffed
0011
0018
000c
0001
ffff
fff9
0007
0004
fff8
fffd
0019
0015
0015
ffec
0004
fff1
0013
001f
001b
0018
fffe
fffe
ffe8
fff6
001c
fff7
fff5
fff5
fff2
001a
fff1
fffa
fff6
ffee
ffee
0011
fffc
0008
0000
0018
000a
0021
000e
001a
ffef
fff2
0012
000b
0022
fff6
0014
000b
0007
fff5
ffed
000c
fff9
0008
fffe
fffa
0009
0009
0000
fff5
0004
fff3
fff3
0010
ffe9
0003
0003
fff7
000e
0016
fff5
0020
fffc
001b
001d
0011
001d
ffff
fff3
fff9
fffe
0001
0011
0005
ffea
fff2
ffec
0004
ffef
ffec
ffda
ffec
0004
000a
000c
0008
000d
0010
ffe0
0000
0005
fffc
0000
0017
001c
fff8
0011
ffff
ffe7
ffe9
0000
fff6
000b
000c
0004
0016
ffff
ffe8
0002
ffe5
fff5
0001
fff1
0003
fffa
ffe9
0010
ffea
000e
000f
000c
0000
0005
0008
fff5
0021
0000
ffef
fff0
0000
0020
000c
000f
0015
0013
ffeb
0010
000a
ffea
0014
0000
ffea
0001
0001
ffeb
ffe8
000c
0007
fff7
fffc
0000
ffec
ffea
0006
ffe1
fffe
0000
fff0
fff5
0001
001b
fff9
ffff
fffc
fff7
ffe6
001a
0001
fffb
ffee
0016
fff4
0000
0011
0012
fff8
0013
fff2
000c
fff7
0014
0010
0000
fffe
0003
fffc
ffe7
0013
0010
ffe8
0017
0013
ffef
fff4
0000
0008
0003
fffe
ffe3
0006
000e
ffec
ffe9
ffeb
000f
ffee
fffc
fff7
001a
0012
000b
ffe8
001d
0017
0017
fff0
ffed
ffec
000c
0021
0012
fffd
ffe2
ffef
0009
000f
0014
000d
fff7
000c
fff8
fff2
000c
0001
000a
ffef
001e
000a
000e
0007
0004
000a
001e
000d
000c
0022
000a
000c
000c
fff5
0009
0014
fffd
fffc
0017
fff1
0009
0004
ffe7
ffed
ffe8
fff8
0003
fff1
0004
000a
0009
fff3
fff3
0003
fff7
fff1
fff0
ffee
0012
0006
0013
0001
ffee
ffe8
0000
0016
0016
0005
0007
0002
ffee
0009
fff6
ffec
000e
ffee
fffc
001b
fff4
fff9
0008
ffeb
fffb
fff1
0003
ffff
0016
fffc
ffef
0011
001d
fff3
fff2
fff9
000f
ffe8
0013
ffed
ffed
fff6
0007
0005
000f
000f
0014
0005
0014
fff9
fffa
000c
0004
fff8
fff1
ffff
000c
0018
0011
0000
0008
0010
ffff
0011
fff1
0003
ffee
0009
0021
ffea
fff3
fff5
000a
0023
ffff
0000
000d
fff5
fff7
0005
000f
fffa
0003
fffc
ffee
000e
0014
ffed
0009
001f
fff2
0002
fffc
0001
fff1
0000
ffe7
ffe1
0010
fff0
fff8
ffef
0000
0015
ffff
000c
fff4
0010
ffec
0012
fff3
0010
fffa
fff5
0001
ffeb
0009
000d
001b
0005
001c
0019
0004
fff3
0005
ffdc
000f
fff6
fff7
0003
0003
fffa
ffff
ffef
ffef
ffec
0023
fff1
000a
0000
ffee
fff2
ffe8
0011
000d
0017
0006
fff7
0007
ffe0
0020
0016
0025
fffa
0015
fff9
ffe7
001b
0009
0008
0013
ffea
fff4
0012
0010
ffeb
fffd
fff3
0005
0013
fffc
fffa
001f
fffa
fff5
fff3
0001
0008
ffef
fff4
000f
ffff
0015
0020
0009
fffc
0000
0007
001b
0013
0013
fff1
fff9
0001
ffe1
001a
ffee
0002
0005
0013
ffff
0015
ffe0
ffea
0003
000f
0004
0003
fffa
000d
0005
ffe3
0009
fff3
001b
ffec
ffde
0013
fff6
000c
0001
fff2
0012
0007
0003
0010
0014
fff9
0019
ffee
fff3
000b
000a
ffef
000c
fff4
0004
fff7
ffff
0009
0003
0023
fff1
0006
0000
0025
001f
0017
fffe
0000
0015
001c
000a
0003
fff4
fff2
0005
001b
fffc
0013
0033
fff4
000d
0009
0023
0000
0005
fffc
fffb
ffff
0010
fffc
0009
0006
fffc
0003
0006
fffe
000e
001d
0006
fffa
fff0
0000
0025
0019
0010
fff5
0006
0017
fffb
fff4
fffa
ffeb
0004
0008
0007
0009
0000
fffa
000f
fffe
fffc
0025
fff4
000e
0019
0012
ffff
001c
fff9
ffea
0001
fff5
fff8
000a
fff7
0000
fff3
0006
ffe0
fffb
0014
001d
0007
001c
0017
0000
000c
0013
ffee
fff7
0007
0006
ffdf
fffd
fff9
0005
000c
0015
fff9
fff4
0000
ffe0
0001
ffec
000a
0011
ffec
0003
0010
ffff
0005
fffe
fff1
000b
000a
fff7
001f
001a
0004
0003
0015
fff5
0009
000e
0020
fff8
fff2
001b
fff8
0015
0017
0000
000b
000d
fffd
0009
fff5
fff8
0006
ffff
0012
fff9
0000
000c
fffc
0021
0008
ffe7
001c
fff4
0002
ffe8
001c
000e
0013
0006
000a
fff2
0009
0014
0018
fff2
0012
0001
0013
0009
ffec
0005
000f
ffed
fff1
0003
0009
0009
fff4
ffea
ffe5
fffd
0009
000d
000e
fff0
0009
0008
001b
0011
0018
fff8
0010
0006
001b
ffe2
000e
fffe
0012
0014
0012
0000
ffde
fff9
000b
001a
0001
001d
000d
fff5
0002
ffe9
0008
fffb
000b
fff0
ffe4
fffa
0003
0010
fff4
ffed
001a
0008
0004
ffdd
fffe
fff1
ffef
fff6
fff9
0009
fff2
fff4
0001
0000
0006
0008
ffec
000a
fffa
fff5
ffe6
001a
0014
0001
000c
0004
fffe
fffd
fff1
ffe7
0001
001d
fff4
000e
001d
0011
ffe6
0021
0001
0004
0009
0007
ffff
000f
001f
fff2
0007
ffee
fff8
fffb
fffe
0005
0005
0015
0005
fff9
0010
0012
fff6
fff2
fff4
000b
0014
0012
0019
fff6
0017
0011
000a
0009
ffee
0007
fff5
fff8
001d
0015
0013
000d
fffd
000b
0013
000e
0012
001d
fff5
ffec
ffff
fffc
0001
fffd
ffff
fff6
ffee
0012
fffe
0014
000c
0000
0000
fffa
fff3
fff0
ffdf
000e
ffeb
fffe
0007
fffc
ffdf
ffe7
ffeb
fffd
0015
0005
0007
ffea
ffe9
ffee
0004
0020
ffee
fffa
ffef
fff7
fff1
0006
0001
ffea
0014
0003
0000
0019
fff1
0010
0018
fff4
0000
fff3
0007
0014
000c
000f
fff3
fff6
ffec
0007
0015
ffec
0013
ffea
0007
0013
ffff
0010
0005
ffff
0019
001a
000d
000e
0011
0009
0008
000c
0000
0006
0004
0006
0011
ffe8
fffa
0010
000d
0012
0021
000a
ffeb
fff4
fff5
0019
0003
0013
000e
fffa
000d
0016
fff7
fffd
000e
000f
fff9
fffc
fff3
0011
0011
000b
fff6
ffef
0015
0008
ffe5
fffb
001c
fff2
000b
0003
0012
fffa
0000
000d
0004
fffc
0022
0019
0004
fff8
fff3
fff1
fffd
000c
0004
ffec
0001
0008
fffa
0004
ffeb
ffe5
0013
000f
0011
0016
0007
fff8
0003
000f
000b
0011
0001
fff4
000d
0001
0001
ffee
fff8
0004
0012
fffc
ffe9
fff8
ffeb
0003
fff3
ffe7
000c
000d
ffeb
0006
ffec
ffef
fffe
ffee
ffe3
fff7
0016
fffa
0006
fff8
ffea
fff9
000d
fff9
fff8
fff9
0009
fff6
0000
ffec
0001
fff2
001c
fffa
fffa
ffff
0009
0010
0007
0006
fff8
0024
ffec
000b
0008
0014
ffea
000f
fffa
001e
000c
0012
fffe
0002
0001
0001
000f
fff3
0008
0008
0008
0007
fffb
000c
ffee
0019
fff2
fff4
fffe
0008
0006
ffef
0007
0005
000f
0012
fffb
0010
000a
000e
fffe
0012
0008
0003
fffc
0008
0008
ffea
0002
0015
ffef
fffe
fffe
0002
000a
fffe
ffe7
0005
fffc
0009
fff8
0018
0007
0006
fff8
0010
000e
fff8
0001
0019
0017
000e
fff1
fffd
0001
fff8
0002
fff0
0011
0004
fff7
0000
0000
fff3
0012
0020
ffeb
0001
ffe5
ffec
0016
0000
fffb
fff1
0013
000f
0014
0013
fff1
ffef
ffeb
fffb
fff5
ffeb
fffb
fff6
fff4
fffe
fff9
fffa
ffec
000d
fffb
0016
fff7
fff1
0007
fff7
0018
fff8
fff7
fffd
000b
ffff
001e
001b
ffed
ffe9
0012
0011
0001
fff8
0017
fff3
fffc
000f
fff7
0024
ffe5
000e
fff3
ffef
ffe7
0018
0000
0007
000b
fff2
0002
fff2
0022
0000
fffb
0013
000b
0011
fff0
001e
ffe8
fffa
ffe8
ffea
0001
0009
0004
001a
0013
ffe9
0015
0005
0008
ffe8
ffef
fffd
001e
0016
ffeb
ffe2
0009
001a
fffe
001b
0005
ffed
0003
0007
0017
000b
0004
000b
fff6
ffef
0007
000b
fff6
fff4
0000
ffeb
0001
fff8
0001
fff6
0014
0000
0003
001b
ffee
0007
ffef
000c
0009
0010
0024
0000
000c
fffd
0005
ffe8
0009
0000
fff8
0009
ffff
fff9
0014
ffe8
ffe2
0014
fffd
fffb
fff7
ffef
fff3
001a
fff8
fff4
fff1
fff2
ffed
0013
fff0
ffff
0010
0008
0014
0000
ffff
ffff
fff9
0005
fffb
000f
0015
0006
fff7
0013
ffff
0007
ffdf
0000
0013
000e
0009
000a
0013
000b
fff7
0003
ffee
0016
fff0
fff3
000f
fffe
0006
fff6
0009
ffee
fff8
0007
0019
000f
fff2
fffa
fff1
ffed
0001
001f
0013
000f
0010
0009
0004
0017
fff0
0005
0009
0015
000b
001f
fff1
fffe
ffec
0011
fff4
0001
0001
0013
001f
000e
0014
0013
0015
0006
0012
000e
fff7
fff8
000b
fff1
fff2
fff3
fff1
fffb
0007
fff2
0014
fff0
fffc
0011
fff6
0003
ffe9
ffef
fff6
000b
0001
0015
0019
0003
0014
0017
0011
fffb
0010
0012
0002
0004
ffef
0013
000d
ffe9
0024
0006
fffe
fff8
ffe7
0002
ffee
ffed
0015
0001
000a
fffe
ffe6
0012
0019
fff1
0011
000b
fff1
000f
000f
0005
0001
000d
fffc
0023
000a
ffe8
0003
fff1
fff3
fff4
0004
fffc
000d
fffd
0000
0001
001b
fff2
fff6
fff1
fff8
0002
fff7
0008
fff3
fffc
0018
0011
0013
0001
fff0
0017
0007
ffec
0007
fff1
fff9
fff1
001d
000c
0016
ffee
0001
fff1
0015
0010
000f
0025
0014
ffe8
0005
000a
fff5
fff6
ffe7
fffa
001a
0000
0000
fff2
ffed
0017
ffe9
fff0
fff1
0018
fff5
000e
fff8
0012
ffff
fff7
ffec
fff8
0022
ffeb
0003
ffe5
0018
0016
fff1
fff7
0013
ffe7
fff8
fff4
ffe5
0013
0010
ffe7
fff6
0014
ffe3
fff8
001c
000c
0011
0000
000c
0019
fffa
0000
ffe2
0016
0008
ffe3
0007
ffeb
0005
fff1
fffe
0015
fff4
ffee
ffed
0018
ffef
001b
0008
fffd
fffd
000a
fff7
fff5
000f
0005
000b
0012
ffec
ffe6
000e
fff7
0005
0017
0005
0018
ffeb
fffd
fffd
fff8
ffe4
000d
000a
0015
000e
fff3
fff0
001f
0000
0000
ffed
fff8
fff7
0014
0016
000e
fff9
000c
0001
fffe
fff4
fffe
0010
fff8
fff4
0014
001b
000d
fffc
0009
0018
0002
000e
ffff
0001
fff5
0016
ffef
fff2
ffed
0006
fffc
fff8
fffe
fff1
000b
0006
fffb
000f
0015
0004
0015
fff1
0005
000c
0007
0022
0008
0003
0017
0012
0003
0009
0006
fff1
fffb
0010
000a
fff7
fffb
0016
000b
0008
001d
0019
fffe
000c
0009
ffea
fffb
0019
000d
fffc
fff9
0010
0006
ffed
ffee
001d
0009
fff4
0016
000d
ffff
ffec
fff6
000c
0006
0015
fff3
ffee
0015
0009
ffed
fff9
ffed
0000
000a
0020
fff3
001b
000f
0019
ffeb
0005
ffe8
000f
0000
0006
fffd
000d
0004
0000
0018
0000
0009
fffe
0006
0016
0016
000f
000b
ffea
fff5
ffec
fff9
0006
fff6
ffec
0012
0002
000e
ffee
002e
000a
000f
0013
fffc
0003
0000
0002
ffeb
ffec
0017
0000
0003
fff2
fff0
0017
ffe3
fff0
fff4
000a
0014
fff6
0013
0014
fffc
ffe8
0002
fff0
000a
fff3
0006
000b
0002
0000
fff7
000a
0005
0015
fff9
ffff
fff9
fffa
0014
0003
fff3
fffe
0010
ffdc
000b
000d
0009
001b
0026
0001
0028
0001
fff1
fff4
fff3
0004
fff8
fff1
fffc
0005
001a
fff7
fff1
002a
0009
ffe6
0013
0011
0006
0011
fff3
fffb
0000
0000
fff4
ffff
ffec
0005
fffb
0002
0001
ffe4
fff4
0010
fff2
000e
000e
ffe9
000e
ffe1
0000
0007
0008
ffff
000c
fffb
001a
000a
0013
ffea
0003
fff6
0009
ffe4
0000
fff3
0015
fff5
0000
fff8
fff0
0003
0008
fffb
000c
0002
ffe5
0014
0007
000d
ffe4
fff4
fffe
0009
fff3
0008
000f
fff8
0000
0019
0016
0012
0019
fff9
fff7
0006
0012
0012
fff8
000c
fff5
ffea
0009
0009
000f
fffe
001a
0012
fff5
0014
000c
0016
fff2
ffe8
fff9
0012
0007
ffe7
fffc
001f
000a
fffb
0014
000d
fff3
0017
0011
fff2
fffc
fff4
fffb
ffe8
000b
0017
000d
fff3
fff4
fff5
0018
000c
0003
000c
ffee
ffe7
0007
0016
fff3
fff0
000d
0006
fff5
0009
0013
0002
fff5
ffeb
0000
0001
0008
ffe9
0004
0005
0011
fffe
0009
000a
fff4
0000
001a
ffef
ffec
ffdd
000b
