ffff
ffcf
fff1
ffeb
fff7
ffec
fffd
fff0
ffef
fffe
000f
ffdf
ffde
ffe3
001e
0014
0007
fff1
0007
0002
ffe4
fffb
0014
ffe3
fff6
ffef
fff9
001e
0026
ffe1
001e
fffb
0009
0014
0000
0011
ffe5
0023
fff6
fffe
0004
001b
0018
ffdc
fff5
ffe5
ffe5
000e
001b
fffe
ffef
0009
0012
000c
0007
ffde
fff7
0008
ffcd
fff3
ffdb
001b
fff1
0008
fff0
0003
ffef
fffd
0001
0009
ffea
fffc
0003
fff4
001a
fff5
0017
0016
fff9
0001
ffe7
ffdb
ffec
fffa
ffe2
0014
fff5
fff4
000e
0016
0013
000a
fff1
ffec
ffec
ffeb
0024
fff1
ffe7
0000
ffea
ffe6
fff6
fff8
fff5
0016
ffed
ffe1
ffe6
ffd6
000c
ffee
ffdc
0016
fffc
fff7
001e
001a
0006
000c
0017
0003
ffd8
fff7
0007
ffdb
fff2
0002
fff7
0000
fffb
ffef
ffdd
ffdd
0000
ffef
000a
0003
0007
0017
0005
0015
0000
ffff
0006
ffec
0004
ffe3
0023
0023
0018
ffe8
ffed
0005
ffe8
0022
001f
0023
0011
0009
ffe6
ffec
ffde
fff4
fff3
0010
001c
ffe5
000d
fff5
ffef
001b
ffda
ffef
0003
001d
ffff
ffec
ffea
ffe4
ffe8
0006
fff8
0003
000e
ffdf
0009
0017
0000
000e
001b
0001
0011
fff5
fff6
0029
fff3
0000
0007
0019
ffeb
fff5
0016
0016
0002
0001
000a
0016
0013
0017
000c
ffee
001f
ffdd
0010
fffb
ffdb
0003
fff9
fffa
ffea
0005
001c
ffdb
ffe4
ffff
0002
fffd
fff5
001d
0003
ffda
001c
fffb
000e
fffc
ffd6
000b
ffea
ffdf
0005
ffe9
000d
0024
fff9
ffe4
ffdd
0013
fff2
0012
fff7
001b
0023
fffe
fff7
001e
0020
0003
fff6
fff4
0002
0003
fff9
000a
ffe0
ffdb
ffdd
fff7
0002
001e
0018
0000
001b
0014
fffb
001a
001b
0008
000d
ffea
0016
ffff
0012
fff7
ffeb
ffd6
ffea
ffe9
fffe
fff7
ffe8
0000
fffa
0010
0021
001a
0004
ffdb
000d
000d
ffdc
ffe8
0012
0002
000e
fff8
ffe4
ffe4
ffde
000e
ffdd
0001
ffdd
ffee
0014
0006
001a
ffd9
0006
0004
fff3
ffdd
0008
fffc
ffed
0022
ffe0
ffff
fff9
ffe8
000f
0006
0018
fff8
ffee
001c
0009
001c
0008
fffd
fffb
fff7
ffe6
ffec
0018
0018
0008
0003
000f
0012
fff8
fff2
fff4
ffec
fff6
ffe0
000f
ffd7
ffe7
000d
0019
001d
ffe4
fff5
0000
0003
0011
0014
ffee
000f
002a
ffe9
ffe1
ffe5
0003
fffd
ffed
000e
fff8
ffd9
0022
001b
ffd2
0012
000c
fffe
000e
ffe3
0011
0014
ffd9
ffe6
0001
fff6
0016
0002
000c
0019
ffe8
0010
0005
0026
000e
000b
fffc
ffe7
0019
000c
0003
ffdb
fff0
ffef
0013
fff4
0007
ffe6
0022
fff7
0005
0002
0000
fff5
0018
0018
0015
000a
fff3
ffdf
0014
fff8
ffea
001c
ffe1
000a
fff6
0005
ffe7
0004
0013
000c
ffe4
fffe
0019
ffeb
ffe1
ffde
0009
ffd4
ffe5
0015
0014
0006
ffda
0001
000a
0003
001a
fff6
0007
fffb
ffdf
0000
fff2
fffd
fffd
0008
fffe
0013
0014
fffe
fffd
0021
002a
0002
ffea
002b
ffec
0016
fffe
0015
ffe4
fff7
0017
0019
fff9
0004
ffe0
0016
0000
0025
000e
ffd5
ffdc
fff4
fffa
fffd
0004
fff3
ffec
001e
fff6
000e
0007
000b
fff5
ffd4
001a
0008
ffee
ffea
0017
fffc
001a
0000
fff5
ffea
001e
ffeb
0017
fff3
fff6
ffe7
ffe1
fff4
ffe7
ffe4
0017
fff9
0000
0017
0011
ffdf
001e
001d
0017
0013
0008
000d
0011
fff4
ffec
0006
0011
0015
0001
000c
ffe5
fffb
0012
ffe8
ffde
0014
0001
ffe0
0005
0011
ffee
0023
ffe0
fff3
fff3
ffd6
fff4
ffed
0016
0002
fff7
ffee
fff1
ffed
ffd4
000c
fff1
0003
0020
fff6
fffd
fffe
001f
fff8
000f
ffdd
fff0
fff4
0012
ffe1
001f
0001
0000
0005
000b
ffeb
ffef
fff8
fff8
001b
0013
fff6
0027
000d
fff4
0001
ffdb
fff8
ffe9
ffe9
001d
ffdc
ffee
0016
fff7
0005
0006
001d
ffe8
0027
ffe1
ffde
ffd4
ffe4
001d
ffe7
ffd5
fffd
0002
ffeb
fffd
ffea
ffec
001b
0008
ffeb
fff9
fff3
fff1
0000
ffeb
0000
000c
0000
000e
ffea
0017
0014
0009
0014
001f
fff1
ffe9
0006
0015
0019
001a
0004
0001
0014
ffd4
0023
000d
fff4
000f
ffe9
ffec
001f
0000
0016
fff7
001e
001d
fff4
ffeb
0000
0002
0004
ffee
0000
000b
ffeb
0015
000c
fffa
0015
ffd8
0017
ffd8
fffc
fff5
fffd
fffd
0002
0013
001b
fffd
ffda
0012
fff3
001f
ffda
ffeb
ffea
ffe4
fffa
0011
ffe8
001e
ffff
ffda
fff7
ffee
0001
ffe4
ffee
0029
0003
ffe6
fff0
ffdd
0000
fffa
0012
0013
fff6
0008
0013
ffde
0010
001d
fffd
ffd6
001d
ffd6
000f
0019
fffd
ffe9
000e
0012
0017
0020
fff6
000d
fff3
0023
ffe7
ffea
ffef
ffff
ffd0
fff7
0021
0020
fffe
ffe3
0002
000b
0010
0015
0010
ffef
fff1
fff3
fffb
fffa
ffcb
0010
ffe6
0001
ffe9
0003
ffec
fff6
0001
fff3
0029
ffe7
ffde
0002
000b
0005
000b
ffea
0007
fffc
0008
ffeb
0007
ffee
fff0
0014
fff7
0000
ffef
0001
ffe4
0005
0007
001a
0017
001d
0000
ffdc
0020
000a
ffef
fffa
0003
fff7
fffe
000c
000e
fff8
fffe
0003
0015
0001
ffee
0011
fffd
fffb
001d
fffb
0016
ffed
0005
0021
ffe8
fff3
000c
ffde
ffe6
fffe
ffd3
fff2
0009
0014
fff1
0020
0012
ffe4
0002
